{
  "version": "1.0",
  "truncation": {
    "direction": "Right",
    "max_length": 512,
    "strategy": "LongestFirst",
    "stride": 0
  },
  "padding": {
    "strategy": "BatchLongest",
    "direction": "Right",
    "pad_to_multiple_of": null,
    "pad_id": 2,
    "pad_type_id": 0,
    "pad_token": "<|im_end|>"
  },
  "added_tokens": [
    {
      "id": 0,
      "content": "<|endoftext|>",
      "single_word": false,
      "lstrip": false,
      "rstrip": false,
      "normalized": false,
      "special": true
    },
    {
      "id": 1,
      "content": "<|im_start|>",
      "single_word": false,
      "lstrip": false,
      "rstrip": false,
      "normalized": false,
      "special": true
    },
    {
      "id": 2,
      "content": "<|im_end|>",
      "single_word": false,
      "lstrip": false,
      "rstrip": false,
      "normalized": false,
      "special": true
    },
    {
      "id": 3,
      "content": "<repo_name>",
      "single_word": false,
      "lstrip": false,
      "rstrip": false,
      "normalized": false,
      "special": true
    },
    {
      "id": 4,
      "content": "<reponame>",
      "single_word": false,
      "lstrip": false,
      "rstrip": false,
      "normalized": false,
      "special": true
    },
    {
      "id": 5,
      "content": "<file_sep>",
      "single_word": false,
      "lstrip": false,
      "rstrip": false,
      "normalized": false,
      "special": true
    },
    {
      "id": 6,
      "content": "<filename>",
      "single_word": false,
      "lstrip": false,
      "rstrip": false,
      "normalized": false,
      "special": true
    },
    {
      "id": 7,
      "content": "<gh_stars>",
      "single_word": false,
      "lstrip": false,
      "rstrip": false,
      "normalized": false,
      "special": true
    },
    {
      "id": 8,
      "content": "<issue_start>",
      "single_word": false,
      "lstrip": false,
      "rstrip": false,
      "normalized": false,
      "special": true
    },
    {
      "id": 9,
      "content": "<issue_comment>",
      "single_word": false,
      "lstrip": false,
      "rstrip": false,
      "normalized": false,
      "special": true
    },
    {
      "id": 10,
      "content": "<issue_closed>",
      "single_word": false,
      "lstrip": false,
      "rstrip": false,
      "normalized": false,
      "special": true
    },
    {
      "id": 11,
      "content": "<jupyter_start>",
      "single_word": false,
      "lstrip": false,
      "rstrip": false,
      "normalized": false,
      "special": true
    },
    {
      "id": 12,
      "content": "<jupyter_text>",
      "single_word": false,
      "lstrip": false,
      "rstrip": false,
      "normalized": false,
      "special": true
    },
    {
      "id": 13,
      "content": "<jupyter_code>",
      "single_word": false,
      "lstrip": false,
      "rstrip": false,
      "normalized": false,
      "special": true
    },
    {
      "id": 14,
      "content": "<jupyter_output>",
      "single_word": false,
      "lstrip": false,
      "rstrip": false,
      "normalized": false,
      "special": true
    },
    {
      "id": 15,
      "content": "<jupyter_script>",
      "single_word": false,
      "lstrip": false,
      "rstrip": false,
      "normalized": false,
      "special": true
    },
    {
      "id": 16,
      "content": "<empty_output>",
      "single_word": false,
      "lstrip": false,
      "rstrip": false,
      "normalized": false,
      "special": true
    }
  ],
  "normalizer": null,
  "pre_tokenizer": {
    "type": "ByteLevel",
    "add_prefix_space": false,
    "trim_offsets": true,
    "use_regex": true
  },
  "post_processor": {
    "type": "TemplateProcessing",
    "single": [
      {
        "Sequence": {
          "id": "A",
          "type_id": 0
        }
      }
    ],
    "pair": [
      {
        "Sequence": {
          "id": "A",
          "type_id": 0
        }
      },
      {
        "Sequence": {
          "id": "B",
          "type_id": 1
        }
      }
    ],
    "special_tokens": {}
  },
  "decoder": {
    "type": "ByteLevel",
    "add_prefix_space": true,
    "trim_offsets": true,
    "use_regex": true
  },
  "model": {
    "type": "BPE",
    "dropout": null,
    "unk_token": null,
    "continuing_subword_prefix": "",
    "end_of_word_suffix": "",
    "fuse_unk": false,
    "byte_fallback": false,
    "ignore_merges": false,
    "vocab": {
      "<|endoftext|>": 0,
      "<|im_start|>": 1,
      "<|im_end|>": 2,
      "<repo_name>": 3,
      "<reponame>": 4,
      "<file_sep>": 5,
      "<filename>": 6,
      "<gh_stars>": 7,
      "<issue_start>": 8,
      "<issue_comment>": 9,
      "<issue_closed>": 10,
      "<jupyter_start>": 11,
      "<jupyter_text>": 12,
      "<jupyter_code>": 13,
      "<jupyter_output>": 14,
      "<jupyter_script>": 15,
      "<empty_output>": 16,
      "!": 17,
      "\"": 18,
      "#": 19,
      "$": 20,
      "%": 21,
      "&": 22,
      "'": 23,
      "(": 24,
      ")": 25,
      "*": 26,
      "+": 27,
      ",": 28,
      "-": 29,
      ".": 30,
      "/": 31,
      "0": 32,
      "1": 33,
      "2": 34,
      "3": 35,
      "4": 36,
      "5": 37,
      "6": 38,
      "7": 39,
      "8": 40,
      "9": 41,
      ":": 42,
      ";": 43,
      "<": 44,
      "=": 45,
      ">": 46,
      "?": 47,
      "@": 48,
      "A": 49,
      "B": 50,
      "C": 51,
      "D": 52,
      "E": 53,
      "F": 54,
      "G": 55,
      "H": 56,
      "I": 57,
      "J": 58,
      "K": 59,
      "L": 60,
      "M": 61,
      "N": 62,
      "O": 63,
      "P": 64,
      "Q": 65,
      "R": 66,
      "S": 67,
      "T": 68,
      "U": 69,
      "V": 70,
      "W": 71,
      "X": 72,
      "Y": 73,
      "Z": 74,
      "[": 75,
      "\\": 76,
      "]": 77,
      "^": 78,
      "_": 79,
      "`": 80,
      "a": 81,
      "b": 82,
      "c": 83,
      "d": 84,
      "e": 85,
      "f": 86,
      "g": 87,
      "h": 88,
      "i": 89,
      "j": 90,
      "k": 91,
      "l": 92,
      "m": 93,
      "n": 94,
      "o": 95,
      "p": 96,
      "q": 97,
      "r": 98,
      "s": 99,
      "t": 100,
      "u": 101,
      "v": 102,
      "w": 103,
      "x": 104,
      "y": 105,
      "z": 106,
      "{": 107,
      "|": 108,
      "}": 109,
      "~": 110,
      "¡": 111,
      "¢": 112,
      "£": 113,
      "¤": 114,
      "¥": 115,
      "¦": 116,
      "§": 117,
      "¨": 118,
      "©": 119,
      "ª": 120,
      "«": 121,
      "¬": 122,
      "®": 123,
      "¯": 124,
      "°": 125,
      "±": 126,
      "²": 127,
      "³": 128,
      "´": 129,
      "µ": 130,
      "¶": 131,
      "·": 132,
      "¸": 133,
      "¹": 134,
      "º": 135,
      "»": 136,
      "¼": 137,
      "½": 138,
      "¾": 139,
      "¿": 140,
      "Â": 141,
      "Ã": 142,
      "Ä": 143,
      "Å": 144,
      "Æ": 145,
      "Ç": 146,
      "È": 147,
      "É": 148,
      "Ê": 149,
      "Ë": 150,
      "Ì": 151,
      "Í": 152,
      "Î": 153,
      "Ï": 154,
      "Ð": 155,
      "Ñ": 156,
      "Ò": 157,
      "Ó": 158,
      "Ô": 159,
      "Õ": 160,
      "Ö": 161,
      "×": 162,
      "Ø": 163,
      "Ù": 164,
      "Ú": 165,
      "Û": 166,
      "Ü": 167,
      "Ý": 168,
      "Þ": 169,
      "ß": 170,
      "à": 171,
      "á": 172,
      "â": 173,
      "ã": 174,
      "ä": 175,
      "å": 176,
      "æ": 177,
      "ç": 178,
      "è": 179,
      "é": 180,
      "ê": 181,
      "ë": 182,
      "ì": 183,
      "í": 184,
      "î": 185,
      "ï": 186,
      "ð": 187,
      "ó": 188,
      "ô": 189,
      "Ā": 190,
      "ā": 191,
      "Ă": 192,
      "ă": 193,
      "ą": 194,
      "ć": 195,
      "Ĉ": 196,
      "ĉ": 197,
      "Ċ": 198,
      "ċ": 199,
      "Č": 200,
      "č": 201,
      "Ď": 202,
      "ď": 203,
      "Đ": 204,
      "đ": 205,
      "Ē": 206,
      "ĕ": 207,
      "ė": 208,
      "Ę": 209,
      "ę": 210,
      "Ě": 211,
      "ě": 212,
      "Ĝ": 213,
      "Ğ": 214,
      "ğ": 215,
      "Ġ": 216,
      "ġ": 217,
      "Ģ": 218,
      "ģ": 219,
      "Ĥ": 220,
      "ĥ": 221,
      "Ħ": 222,
      "ħ": 223,
      "Ĩ": 224,
      "ĩ": 225,
      "Ī": 226,
      "ī": 227,
      "Ĭ": 228,
      "ĭ": 229,
      "Į": 230,
      "į": 231,
      "İ": 232,
      "ı": 233,
      "Ĳ": 234,
      "ĳ": 235,
      "Ĵ": 236,
      "ĵ": 237,
      "Ķ": 238,
      "ķ": 239,
      "ĸ": 240,
      "Ĺ": 241,
      "ĺ": 242,
      "Ļ": 243,
      "ļ": 244,
      "Ľ": 245,
      "ľ": 246,
      "Ŀ": 247,
      "ŀ": 248,
      "Ł": 249,
      "ł": 250,
      "Ń": 251,
      "Ġt": 252,
      "Ġa": 253,
      "in": 254,
      "he": 255,
      "ĠĠ": 256,
      "re": 257,
      "on": 258,
      "er": 259,
      "Ġthe": 260,
      "at": 261,
      "Ġs": 262,
      "Ġo": 263,
      "en": 264,
      "Ġc": 265,
      "es": 266,
      "Ġw": 267,
      "nd": 268,
      "it": 269,
      "or": 270,
      "is": 271,
      "al": 272,
      "Ġp": 273,
      "ing": 274,
      "Ġf": 275,
      "an": 276,
      "ed": 277,
      "Ġb": 278,
      "ou": 279,
      "ar": 280,
      "Ġin": 281,
      "Ġof": 282,
      "Ġm": 283,
      "Ġand": 284,
      "ion": 285,
      "ic": 286,
      "Ġd": 287,
      "Ġto": 288,
      "ĠĠĠĠ": 289,
      "le": 290,
      "ro": 291,
      "as": 292,
      "ent": 293,
      "Ġh": 294,
      "Ġth": 295,
      "ct": 296,
      "Ġe": 297,
      "Ġre": 298,
      "el": 299,
      "om": 300,
      "il": 301,
      "st": 302,
      "Ġl": 303,
      "Ġn": 304,
      "et": 305,
      "im": 306,
      "ve": 307,
      "ol": 308,
      "ation": 309,
      "Ġg": 310,
      "id": 311,
      "ĠT": 312,
      "se": 313,
      "Ġis": 314,
      "ur": 315,
      "ut": 316,
      "ra": 317,
      "ly": 318,
      "ce": 319,
      "ot": 320,
      "âĢ": 321,
      "ch": 322,
      "ow": 323,
      "ig": 324,
      "Ġbe": 325,
      "Ġu": 326,
      "Ġfor": 327,
      "Ġst": 328,
      "Ġy": 329,
      "ĠA": 330,
      "ver": 331,
      "am": 332,
      "ĠĠĠ": 333,
      "ĠS": 334,
      "Ġon": 335,
      "ul": 336,
      "ir": 337,
      "Ġthat": 338,
      "ĠI": 339,
      "ĠC": 340,
      "ay": 341,
      "if": 342,
      "ith": 343,
      "ad": 344,
      "Ġcon": 345,
      "Ġyou": 346,
      "Ġas": 347,
      "Ġpro": 348,
      "her": 349,
      "od": 350,
      "Ġwith": 351,
      "ter": 352,
      "ĠĠĠĠĠĠĠĠ": 353,
      "Ġan": 354,
      "Ġor": 355,
      "Ġwh": 356,
      "Ġit": 357,
      "ment": 358,
      "Ġare": 359,
      "Ġal": 360,
      "ge": 361,
      "ess": 362,
      "ist": 363,
      "Ġex": 364,
      "Ġ(": 365,
      "ers": 366,
      "Ġde": 367,
      "ate": 368,
      "ab": 369,
      "ies": 370,
      "op": 371,
      "ĠM": 372,
      "th": 373,
      "ect": 374,
      "res": 375,
      "us": 376,
      "ĠP": 377,
      "ĠThe": 378,
      "Ġcom": 379,
      "iv": 380,
      "est": 381,
      "um": 382,
      "ity": 383,
      "Ġhe": 384,
      "qu": 385,
      "Ġv": 386,
      "ac": 387,
      "ill": 388,
      "ĠB": 389,
      "ore": 390,
      "em": 391,
      "Ġwe": 392,
      "Ġsu": 393,
      "pp": 394,
      "os": 395,
      "ke": 396,
      "and": 397,
      "rom": 398,
      "nt": 399,
      "ld": 400,
      "ort": 401,
      "ain": 402,
      "ant": 403,
      "ive": 404,
      "igh": 405,
      "oc": 406,
      "ĠH": 407,
      "ĠW": 408,
      "ial": 409,
      "Ġch": 410,
      "Ġby": 411,
      "Ġr": 412,
      "ud": 413,
      "ĠE": 414,
      "ĠĠĠĠĠĠĠ": 415,
      "Ġcan": 416,
      "âĢĻ": 417,
      "Ġat": 418,
      "un": 419,
      "Ġne": 420,
      "Ġha": 421,
      "ĠD": 422,
      "--": 423,
      "ure": 424,
      "Ġle": 425,
      "ĠF": 426,
      "Ġse": 427,
      "ĠR": 428,
      "Ġfrom": 429,
      "Ġen": 430,
      "ri": 431,
      "pe": 432,
      "ical": 433,
      "art": 434,
      "og": 435,
      "Ġwas": 436,
      "pt": 437,
      "ions": 438,
      "pl": 439,
      "rou": 440,
      "Ġnot": 441,
      "ĠN": 442,
      "Ġsh": 443,
      "Ġim": 444,
      "ight": 445,
      "Ġ=": 446,
      "out": 447,
      "ĊĠĠĠĠĠĠĠ": 448,
      "all": 449,
      "ĠL": 450,
      "Ġthis": 451,
      "ĠG": 452,
      "Ġab": 453,
      "ag": 454,
      "red": 455,
      "per": 456,
      "Ġhave": 457,
      "Ġwor": 458,
      "ĠâĢ": 459,
      "gh": 460,
      "our": 461,
      "ine": 462,
      "iz": 463,
      "Ġint": 464,
      "ome": 465,
      "ĊĠĠĠĠĠĠĠĠ": 466,
      "ust": 467,
      "Ġus": 468,
      "Ġyour": 469,
      "ould": 470,
      "act": 471,
      "ĊĠĠĠ": 472,
      "age": 473,
      "ost": 474,
      "Ġpl": 475,
      "Ġ\"": 476,
      "ard": 477,
      "ell": 478,
      "ther": 479,
      "Ġtheir": 480,
      "ult": 481,
      "elf": 482,
      "ated": 483,
      "ff": 484,
      "ich": 485,
      "end": 486,
      "ans": 487,
      "ous": 488,
      "ide": 489,
      "ru": 490,
      "ations": 491,
      "ĠO": 492,
      "Ġad": 493,
      "ak": 494,
      "Ġwhe": 495,
      "du": 496,
      "cl": 497,
      "Ġcont": 498,
      "Ġres": 499,
      "ast": 500,
      "Ġk": 501,
      "Ġthey": 502,
      "Ġcomp": 503,
      "The": 504,
      "ib": 505,
      "'s": 506,
      "orm": 507,
      "ip": 508,
      "cc": 509,
      "Ġdis": 510,
      "Ġall": 511,
      "ap": 512,
      "ame": 513,
      "ĠU": 514,
      "able": 515,
      "ong": 516,
      "ear": 517,
      "ere": 518,
      "ie": 519,
      "ass": 520,
      "Ġimp": 521,
      "are": 522,
      "Ġwill": 523,
      "ance": 524,
      "ĠTh": 525,
      "ind": 526,
      "Ġwhich": 527,
      "ood": 528,
      "ary": 529,
      "ĠJ": 530,
      "ual": 531,
      "vel": 532,
      "ĠIn": 533,
      "ep": 534,
      "ence": 535,
      "Ġdo": 536,
      "one": 537,
      "ks": 538,
      "Ġcl": 539,
      "Ġmore": 540,
      "ry": 541,
      "ia": 542,
      "Ġte": 543,
      "Ġj": 544,
      "ign": 545,
      "ue": 546,
      "ents": 547,
      "reat": 548,
      "Ġme": 549,
      "Ġother": 550,
      "Ġun": 551,
      "ile": 552,
      "Ġhas": 553,
      "ach": 554,
      "Ġman": 555,
      "ime": 556,
      "ction": 557,
      "ild": 558,
      "so": 559,
      "ress": 560,
      "ces": 561,
      "Ġar": 562,
      "Ġabout": 563,
      "Ġbut": 564,
      "av": 565,
      "Ġapp": 566,
      "Ġper": 567,
      "oo": 568,
      "ice": 569,
      "ition": 570,
      "ater": 571,
      "ely": 572,
      "âĢĿ": 573,
      "Ġsp": 574,
      "ake": 575,
      "ase": 576,
      "Ġev": 577,
      "Ġout": 578,
      "ors": 579,
      "ack": 580,
      "ens": 581,
      "Ġone": 582,
      "very": 583,
      "form": 584,
      "Ġif": 585,
      "----": 586,
      "ory": 587,
      "Ġso": 588,
      "ord": 589,
      "ace": 590,
      "int": 591,
      "Ġwere": 592,
      "ber": 593,
      "nder": 594,
      ").": 595,
      "Ġli": 596,
      "Ġalso": 597,
      "ount": 598,
      "Ġpart": 599,
      "Ġcomm": 600,
      "Ġthem": 601,
      "ose": 602,
      "au": 603,
      "ang": 604,
      "ci": 605,
      "Ġstud": 606,
      "con": 607,
      "rit": 608,
      "ire": 609,
      "Ġpe": 610,
      "ub": 611,
      "now": 612,
      "Ġqu": 613,
      "Ġup": 614,
      "Ġsy": 615,
      "ings": 616,
      "Ġwho": 617,
      "Ġinto": 618,
      "ĠâĢľ": 619,
      "ound": 620,
      "ish": 621,
      "Ġpre": 622,
      "Ġthese": 623,
      "Ġits": 624,
      "ĠSt": 625,
      "olog": 626,
      "iff": 627,
      "pec": 628,
      "ĊĠĠĠĠĠĠĠĠĠĠĠ": 629,
      "rough": 630,
      "ric": 631,
      "Ġfe": 632,
      "Ġbec": 633,
      "Ġsome": 634,
      "Ġtra": 635,
      "ail": 636,
      "Ġ'": 637,
      "Ġhow": 638,
      "Ġself": 639,
      "ree": 640,
      "Ġind": 641,
      "ities": 642,
      "),": 643,
      "king": 644,
      "Ġwhen": 645,
      "ays": 646,
      "ph": 647,
      "vers": 648,
      "Ġem": 649,
      "Ġhis": 650,
      "Ġro": 651,
      "ific": 652,
      "Ġour": 653,
      "Ġmay": 654,
      "Ġtime": 655,
      "Ġunder": 656,
      "ĠIt": 657,
      "ments": 658,
      "ĠK": 659,
      "ates": 660,
      "ople": 661,
      "ne": 662,
      "ite": 663,
      "Ġcol": 664,
      "Ġthere": 665,
      "Ġbet": 666,
      "urn": 667,
      "cre": 668,
      "ĠThis": 669,
      "Ġthan": 670,
      "ough": 671,
      "ys": 672,
      "Ġdiff": 673,
      "ating": 674,
      "ob": 675,
      "te": 676,
      "we": 677,
      "ĠCh": 678,
      "ath": 679,
      "ject": 680,
      "Ġtr": 681,
      "ally": 682,
      "low": 683,
      "erv": 684,
      "Ġgo": 685,
      "ms": 686,
      "Ġcons": 687,
      "Ġag": 688,
      "Ġra": 689,
      "Ġover": 690,
      "lect": 691,
      "Ġrec": 692,
      "xt": 693,
      "Ġpr": 694,
      "ple": 695,
      "tern": 696,
      "ian": 697,
      "Ġacc": 698,
      "Ġknow": 699,
      "cess": 700,
      "Ġpeople": 701,
      "Ġlike": 702,
      "ove": 703,
      "Ġhel": 704,
      "Ġact": 705,
      "ata": 706,
      "ons": 707,
      "Ġdes": 708,
      "lic": 709,
      "clud": 710,
      "ious": 711,
      "##": 712,
      "Ġyear": 713,
      "arn": 714,
      "Ġsuch": 715,
      "Ġrel": 716,
      "ĠV": 717,
      "ĠY": 718,
      "Ġbeen": 719,
      "row": 720,
      "ef": 721,
      "Ġuse": 722,
      "ren": 723,
      "Ġhelp": 724,
      "Ġnew": 725,
      "get": 726,
      "):": 727,
      "alth": 728,
      "irst": 729,
      "ert": 730,
      "Ġ-": 731,
      "Ġwhat": 732,
      "ause": 733,
      "eth": 734,
      "les": 735,
      "Ġwould": 736,
      "Ġneed": 737,
      "Ġthrough": 738,
      "ful": 739,
      "stem": 740,
      "uring": 741,
      "round": 742,
      "Ġsa": 743,
      "Ġam": 744,
      "Ġeff": 745,
      "Ġwork": 746,
      "ics": 747,
      "velop": 748,
      "ov": 749,
      "Ġany": 750,
      "ool": 751,
      "Ġimport": 752,
      "Ġdef": 753,
      "Ġbl": 754,
      "ular": 755,
      "ures": 756,
      "Ġass": 757,
      "Ġspec": 758,
      "Ġgen": 759,
      "Ġtw": 760,
      "Ġhad": 761,
      "rib": 762,
      "mer": 763,
      "ll": 764,
      "Ġinclud": 765,
      "ced": 766,
      "Ġoff": 767,
      "Ġmost": 768,
      "ise": 769,
      "hed": 770,
      "self": 771,
      "Ġprov": 772,
      "port": 773,
      "iss": 774,
      "ract": 775,
      "ange": 776,
      "Ġph": 777,
      "ict": 778,
      "Ġreg": 779,
      "ational": 780,
      "als": 781,
      "Ġdiffere": 782,
      "ility": 783,
      "Ġac": 784,
      "pect": 785,
      "oss": 786,
      "Ġno": 787,
      "In": 788,
      "oth": 789,
      "ook": 790,
      "ative": 791,
      "ark": 792,
      "old": 793,
      "Ġob": 794,
      "hen": 795,
      "Ġprodu": 796,
      "Ġinv": 797,
      "Ġmod": 798,
      "Ġdevelop": 799,
      "Ġmany": 800,
      "Ġdi": 801,
      "Ġrem": 802,
      "Ġadd": 803,
      "Ġused": 804,
      "Ġonly": 805,
      "Ġsc": 806,
      "fter": 807,
      "Ġfirst": 808,
      "ween": 809,
      "ĠUn": 810,
      "Ġchild": 811,
      "ible": 812,
      "ten": 813,
      "ram": 814,
      "uc": 815,
      "ĠâĢĵ": 816,
      "Ġsystem": 817,
      "arch": 818,
      "Ġatt": 819,
      "Ġget": 820,
      "ased": 821,
      "Ġinst": 822,
      "ower": 823,
      "com": 824,
      "cept": 825,
      "Ġbetween": 826,
      "Ġtwo": 827,
      "**": 828,
      "Ġret": 829,
      "ife": 830,
      "chn": 831,
      "Ġfl": 832,
      "erm": 833,
      "Ġinf": 834,
      "Ġlearn": 835,
      "ize": 836,
      "Ġwhere": 837,
      "Ġsur": 838,
      "wn": 839,
      "Ġsub": 840,
      "Ġexam": 841,
      "its": 842,
      "Ġinter": 843,
      "Ġpo": 844,
      "own": 845,
      "ew": 846,
      "ond": 847,
      "Ġpers": 848,
      "ts": 849,
      "Ġtrans": 850,
      "ps": 851,
      "hes": 852,
      "Ġpol": 853,
      "ble": 854,
      "Ġexper": 855,
      "Ġcould": 856,
      "Ġco": 857,
      "Ġsupp": 858,
      "ss": 859,
      "ution": 860,
      "Ġnum": 861,
      "ting": 862,
      "ng": 863,
      "Ġhealth": 864,
      "Ġsm": 865,
      "ty": 866,
      "ural": 867,
      "Ġshould": 868,
      "ern": 869,
      "gan": 870,
      "Ġstr": 871,
      "ever": 872,
      "cy": 873,
      "Ġher": 874,
      "ues": 875,
      "Ġwell": 876,
      "Ġbu": 877,
      "ily": 878,
      "stand": 879,
      "ident": 880,
      "erg": 881,
      "oci": 882,
      "Ġty": 883,
      "ines": 884,
      "ied": 885,
      "Ġval": 886,
      "Ġpres": 887,
      "ex": 888,
      "Ġexpl": 889,
      "__": 890,
      "Ġvar": 891,
      "fore": 892,
      "Ġrese": 893,
      "aking": 894,
      "Ġsim": 895,
      "Ġdifferent": 896,
      "Ġevery": 897,
      "ives": 898,
      "ology": 899,
      "ink": 900,
      "ick": 901,
      "Ġke": 902,
      "ade": 903,
      "Ġhigh": 904,
      "Ġworld": 905,
      "ature": 906,
      "Ġ#": 907,
      "Ġeven": 908,
      "ĠHe": 909,
      "Ġform": 910,
      "ists": 911,
      "aw": 912,
      "Ġwater": 913,
      "Ġsign": 914,
      "Ġjust": 915,
      "--------": 916,
      "ants": 917,
      "ism": 918,
      "Ġmake": 919,
      "vent": 920,
      "Ġexp": 921,
      "oy": 922,
      "',": 923,
      "ness": 924,
      "uch": 925,
      "ft": 926,
      "ins": 927,
      "iew": 928,
      "Ġyears": 929,
      "Ġref": 930,
      "ds": 931,
      "Ġset": 932,
      "Ġ[": 933,
      "Ġcommun": 934,
      "Ġcre": 935,
      "ck": 936,
      "Ġdisc": 937,
      "arg": 938,
      "Ġtechn": 939,
      "Ġdata": 940,
      "chool": 941,
      "ĠRe": 942,
      "ices": 943,
      "Ġrequ": 944,
      "ĊĠĠĠĠĠĠĠĠĠĠĠĠĠĠĠĠ": 945,
      "Ġcall": 946,
      "ically": 947,
      "Ġhum": 948,
      "other": 949,
      "..": 950,
      "ax": 951,
      "ential": 952,
      "Ġed": 953,
      "ars": 954,
      "Ġgra": 955,
      "iel": 956,
      "Ġmy": 957,
      "Ġmed": 958,
      "ward": 959,
      "ited": 960,
      "ruct": 961,
      "hat": 962,
      "Ġsee": 963,
      "Ġdet": 964,
      "Ġthen": 965,
      "Ġresult": 966,
      "Ġthose": 967,
      "ually": 968,
      "ages": 969,
      "Ġway": 970,
      "Ġeach": 971,
      "formation": 972,
      "Ġins": 973,
      "hip": 974,
      "Ġbecause": 975,
      "ection": 976,
      "Ġeffect": 977,
      "Ġbel": 978,
      "Ġwhile": 979,
      "Ġprocess": 980,
      "Ġduring": 981,
      "'t": 982,
      "Ġfound": 983,
      "Ġart": 984,
      "Ġcount": 985,
      "Ġlong": 986,
      "Ġpat": 987,
      "Ġdec": 988,
      "Ġfol": 989,
      "Ġafter": 990,
      "Ġgener": 991,
      "ron": 992,
      "Ġext": 993,
      "arm": 994,
      "meric": 995,
      "Ġcent": 996,
      "ety": 997,
      "ands": 998,
      "Ġincre": 999,
      "()": 1000,
      "Ġloc": 1001,
      "\",": 1002,
      "Ġreturn": 1003,
      "ĊĊĠĠĠ": 1004,
      "ized": 1005,
      "Ġdist": 1006,
      "led": 1007,
      "Ġprog": 1008,
      "iron": 1009,
      "ient": 1010,
      "Ġsk": 1011,
      "Ġread": 1012,
      "Ġent": 1013,
      "imes": 1014,
      "Ġusing": 1015,
      "Ġpartic": 1016,
      "Ġpub": 1017,
      "de": 1018,
      "arly": 1019,
      "Ġca": 1020,
      "Ġcur": 1021,
      "Ġlead": 1022,
      "Ġaut": 1023,
      "Ġrep": 1024,
      "els": 1025,
      "Ġhist": 1026,
      "Ġfact": 1027,
      "Ġtest": 1028,
      "Ġlife": 1029,
      "Ġcomple": 1030,
      "Ġfam": 1031,
      "ĠAs": 1032,
      "ivid": 1033,
      "ivers": 1034,
      "Ġvery": 1035,
      "Ġbeing": 1036,
      "Ġfun": 1037,
      "Ġown": 1038,
      "ning": 1039,
      "read": 1040,
      "Ġshe": 1041,
      "Ġfind": 1042,
      "ody": 1043,
      "Ġunderstand": 1044,
      "iqu": 1045,
      "ĠWe": 1046,
      "ĊĠĠĠĠĠĠĠĠĠĠĠĠĠĠĠ": 1047,
      "Ġright": 1048,
      "ases": 1049,
      "cent": 1050,
      "ork": 1051,
      "ĠAmeric": 1052,
      "ĠPro": 1053,
      "Ġresp": 1054,
      "Ġperson": 1055,
      "Ġback": 1056,
      "gg": 1057,
      "Ġstudents": 1058,
      "eng": 1059,
      "Ġdep": 1060,
      "ved": 1061,
      "Ġboth": 1062,
      "ather": 1063,
      "ality": 1064,
      "ĠAl": 1065,
      "Ġfollow": 1066,
      "Ġwrit": 1067,
      "ĠFor": 1068,
      "ĠThey": 1069,
      "Ġimportant": 1070,
      "ĠCon": 1071,
      "Ġdoes": 1072,
      "ĠHow": 1073,
      "Ġgl": 1074,
      "Ġgrow": 1075,
      "Ġcar": 1076,
      "ock": 1077,
      "put": 1078,
      "Ġmin": 1079,
      "tle": 1080,
      "ĠCom": 1081,
      "Th": 1082,
      "Ġmuch": 1083,
      "dition": 1084,
      "Ġmain": 1085,
      "Ġconf": 1086,
      "viron": 1087,
      "ix": 1088,
      "Ġche": 1089,
      "Ġappro": 1090,
      "Ġmon": 1091,
      "Ġbefore": 1092,
      "\"\"": 1093,
      "ĠIf": 1094,
      "par": 1095,
      "Ġinformation": 1096,
      "Ġsom": 1097,
      "Ġgrou": 1098,
      "ves": 1099,
      "Ġsol": 1100,
      "Ġsci": 1101,
      "Ġel": 1102,
      "ving": 1103,
      "inal": 1104,
      "Ġproble": 1105,
      "Ġlevel": 1106,
      "ional": 1107,
      "Ġstudy": 1108,
      "Ġgreat": 1109,
      "up": 1110,
      "any": 1111,
      "Ġend": 1112,
      "Ġav": 1113,
      "Ġfood": 1114,
      "Ġexperi": 1115,
      "ĊĊ": 1116,
      "ĠAn": 1117,
      "nce": 1118,
      "io": 1119,
      "Ġstart": 1120,
      "ale": 1121,
      "Ġchildren": 1122,
      "Ġgood": 1123,
      "Ġmight": 1124,
      "Ġschool": 1125,
      "eg": 1126,
      "Ġwithin": 1127,
      "Ġclass": 1128,
      "Ġoften": 1129,
      "Ġaround": 1130,
      "uss": 1131,
      "ted": 1132,
      "Ġcor": 1133,
      "ave": 1134,
      "Ġmade": 1135,
      "ering": 1136,
      "Ġsaid": 1137,
      "Ġshow": 1138,
      "Ġpop": 1139,
      "vern": 1140,
      "to": 1141,
      "Ġsame": 1142,
      ".,": 1143,
      "Ġpract": 1144,
      "und": 1145,
      "ute": 1146,
      "Ġtoo": 1147,
      "anc": 1148,
      "Ġpower": 1149,
      "Ġlit": 1150,
      "Ġresearch": 1151,
      "Ġvis": 1152,
      "ier": 1153,
      "akes": 1154,
      "rain": 1155,
      "Ġbr": 1156,
      "Ġdesign": 1157,
      "Ġop": 1158,
      "ec": 1159,
      "rent": 1160,
      "Ġprovid": 1161,
      "Ġactiv": 1162,
      "Ġagain": 1163,
      "Ġprot": 1164,
      "Ġsmall": 1165,
      "ĠAr": 1166,
      "Ġallow": 1167,
      "Ġadv": 1168,
      "Ġmem": 1169,
      "ocial": 1170,
      "Ġmat": 1171,
      "ross": 1172,
      "itions": 1173,
      "Ġserv": 1174,
      "ets": 1175,
      "Ġcare": 1176,
      "iving": 1177,
      "Ġposs": 1178,
      "ividual": 1179,
      "pr": 1180,
      "Ġless": 1181,
      "ode": 1182,
      "Ġexample": 1183,
      ".âĢĿ": 1184,
      "air": 1185,
      "ethod": 1186,
      "Ġdown": 1187,
      "Ġtake": 1188,
      "==": 1189,
      "Ġcontin": 1190,
      "ters": 1191,
      "Ġorgan": 1192,
      "rol": 1193,
      "Ġday": 1194,
      "the": 1195,
      "irect": 1196,
      "ield": 1197,
      "ince": 1198,
      "Ġsupport": 1199,
      "vironment": 1200,
      "ital": 1201,
      "Ġcult": 1202,
      "omen": 1203,
      "Ġquest": 1204,
      "Ġhuman": 1205,
      "ĠYou": 1206,
      "app": 1207,
      "Ġtreat": 1208,
      "Ġnow": 1209,
      "ined": 1210,
      "ished": 1211,
      "Ġindividual": 1212,
      "Ġgu": 1213,
      "ared": 1214,
      "Ġstate": 1215,
      "ĠThese": 1216,
      "Ġcalled": 1217,
      "ĠInd": 1218,
      "land": 1219,
      "Ġequ": 1220,
      "val": 1221,
      "day": 1222,
      "der": 1223,
      "arge": 1224,
      "Ġpoint": 1225,
      "ergy": 1226,
      "Ġeng": 1227,
      "pro": 1228,
      "####": 1229,
      "Ġnumber": 1230,
      "tt": 1231,
      "Ġ+": 1232,
      "Ġcle": 1233,
      "Ġredu": 1234,
      "Ġbuild": 1235,
      "Ġser": 1236,
      "ization": 1237,
      "Ġplay": 1238,
      "Ġthough": 1239,
      "ral": 1240,
      "ven": 1241,
      "Ġprof": 1242,
      "Ġaw": 1243,
      "Ġris": 1244,
      "name": 1245,
      "ired": 1246,
      "ulation": 1247,
      "Ġbody": 1248,
      "ĠBut": 1249,
      "Ġdid": 1250,
      "Ġmust": 1251,
      "Ġplan": 1252,
      "ains": 1253,
      "ency": 1254,
      "Ġpos": 1255,
      "Ġbeh": 1256,
      "Ġocc": 1257,
      "raph": 1258,
      "ences": 1259,
      "hers": 1260,
      "Ġconst": 1261,
      "Ġaff": 1262,
      "Ġcour": 1263,
      "Ġest": 1264,
      "âĢĶ": 1265,
      "Ġinc": 1266,
      "Ġpot": 1267,
      "ĠSe": 1268,
      "acter": 1269,
      ".\"": 1270,
      "ources": 1271,
      "Ġhim": 1272,
      "Ġcommon": 1273,
      "ull": 1274,
      "ories": 1275,
      "ately": 1276,
      "Ġwant": 1277,
      "Ġmet": 1278,
      "erest": 1279,
      "Ġpar": 1280,
      "ense": 1281,
      "ify": 1282,
      "ered": 1283,
      "Ġident": 1284,
      "Ġincluding": 1285,
      "aterial": 1286,
      "ah": 1287,
      "rue": 1288,
      "ption": 1289,
      "Ġide": 1290,
      "Ġdise": 1291,
      "))": 1292,
      "ury": 1293,
      "ining": 1294,
      "iversity": 1295,
      "Ġthree": 1296,
      "Ġcell": 1297,
      "iven": 1298,
      "oh": 1299,
      "mon": 1300,
      "Ġpass": 1301,
      "ination": 1302,
      "Ġlet": 1303,
      "Ġtyp": 1304,
      "('": 1305,
      "py": 1306,
      "ability": 1307,
      "Ġeduc": 1308,
      "Ġiss": 1309,
      "ider": 1310,
      "line": 1311,
      "angu": 1312,
      "Ġelect": 1313,
      "ource": 1314,
      "ĠNew": 1315,
      "ĠWh": 1316,
      "ash": 1317,
      "ĠAd": 1318,
      "ids": 1319,
      "ively": 1320,
      "str": 1321,
      "ateg": 1322,
      "ĠEx": 1323,
      "ox": 1324,
      "less": 1325,
      "Ġdon": 1326,
      "ertain": 1327,
      "itive": 1328,
      "Ġsocial": 1329,
      "Ġgovern": 1330,
      "||": 1331,
      "ples": 1332,
      "ries": 1333,
      "Ġimpro": 1334,
      "conom": 1335,
      "Ġchar": 1336,
      "ead": 1337,
      "Ġanal": 1338,
      "Ġcreat": 1339,
      "lish": 1340,
      "Ġmethod": 1341,
      "Ġinvol": 1342,
      "Ġknown": 1343,
      "bers": 1344,
      "Ġreal": 1345,
      "aj": 1346,
      "Ġdel": 1347,
      "This": 1348,
      "Ġconn": 1349,
      "ĠAnd": 1350,
      "Ġess": 1351,
      "iness": 1352,
      "oun": 1353,
      "por": 1354,
      "Ġwithout": 1355,
      "Ġtem": 1356,
      "Ġenvironment": 1357,
      "ccess": 1358,
      "Ġchang": 1359,
      "Ġpublic": 1360,
      "Ġstill": 1361,
      "ner": 1362,
      "Ġchange": 1363,
      "Ġsignific": 1364,
      "Ġbetter": 1365,
      "Ġprom": 1366,
      "Ġeas": 1367,
      "ouse": 1368,
      "Ġhand": 1369,
      "tain": 1370,
      "iod": 1371,
      "Ġanother": 1372,
      "view": 1373,
      "lu": 1374,
      "ially": 1375,
      "Ġmaterial": 1376,
      "ape": 1377,
      "Ġreport": 1378,
      "Ġplace": 1379,
      "Ġlearning": 1380,
      "Ġpur": 1381,
      "ived": 1382,
      "Ġopp": 1383,
      "Ġinterest": 1384,
      "ĠThere": 1385,
      "Ġpresent": 1386,
      "Ġdr": 1387,
      "oms": 1388,
      "pos": 1389,
      "ends": 1390,
      "Ġproject": 1391,
      "uro": 1392,
      "St": 1393,
      "Ġben": 1394,
      "orn": 1395,
      "Ġsit": 1396,
      "arent": 1397,
      "Ġlist": 1398,
      "Ġbre": 1399,
      "over": 1400,
      "Ġspe": 1401,
      "Ġbelie": 1402,
      "Ġphys": 1403,
      "rodu": 1404,
      "ior": 1405,
      "Ġproduct": 1406,
      "Ġfeel": 1407,
      "Ġcap": 1408,
      "ration": 1409,
      "ĊĊĠĠĠĠĠĠĠ": 1410,
      "ills": 1411,
      "oad": 1412,
      "ĠDe": 1413,
      "cing": 1414,
      "ision": 1415,
      "ason": 1416,
      "ental": 1417,
      "li": 1418,
      "bs": 1419,
      "Ġlight": 1420,
      "Ġdevelopment": 1421,
      "Ġsym": 1422,
      "ĠHowever": 1423,
      "Ġmus": 1424,
      "be": 1425,
      "Ġimm": 1426,
      "Ġele": 1427,
      "ĠBy": 1428,
      "cond": 1429,
      "ological": 1430,
      "ĠIs": 1431,
      "ething": 1432,
      "ug": 1433,
      "ently": 1434,
      "ording": 1435,
      "ances": 1436,
      "az": 1437,
      "Ġbecome": 1438,
      "Ġenergy": 1439,
      "Ġopen": 1440,
      "Ġmean": 1441,
      "atic": 1442,
      "Ġfew": 1443,
      "hor": 1444,
      "Ġcaus": 1445,
      "Ġkeep": 1446,
      ",âĢĿ": 1447,
      "ention": 1448,
      "Ġothers": 1449,
      "Ġbest": 1450,
      "Ġfac": 1451,
      "ways": 1452,
      "Ġinclude": 1453,
      "Ġdirect": 1454,
      "from": 1455,
      "Ġ&": 1456,
      "ats": 1457,
      "Ġvari": 1458,
      "ank": 1459,
      "ium": 1460,
      "Ġvarious": 1461,
      "Ġname": 1462,
      "Ġhistory": 1463,
      "Ġcreate": 1464,
      "')": 1465,
      "Ġtop": 1466,
      "ery": 1467,
      "']": 1468,
      "outh": 1469,
      "(\"": 1470,
      "ĠEng": 1471,
      "oint": 1472,
      "Ġhapp": 1473,
      "Ġsever": 1474,
      "Ġleg": 1475,
      "ocus": 1476,
      "Ġperform": 1477,
      "Ġhome": 1478,
      "Ġproper": 1479,
      "agn": 1480,
      "Ġstand": 1481,
      "Ġet": 1482,
      "man": 1483,
      "ray": 1484,
      "Ġmove": 1485,
      "Ġamong": 1486,
      "arc": 1487,
      "Ġsomething": 1488,
      "Ġmark": 1489,
      "ected": 1490,
      "ton": 1491,
      "Ġlook": 1492,
      "Ġsaf": 1493,
      "âĢĵ": 1494,
      "Ġthings": 1495,
      "ique": 1496,
      "Ġchall": 1497,
      "ified": 1498,
      "Ġmeas": 1499,
      "Ġlangu": 1500,
      "Ġfin": 1501,
      "Ġtype": 1502,
      "atch": 1503,
      "ames": 1504,
      "ĠRes": 1505,
      "ians": 1506,
      "Ġlarge": 1507,
      "ator": 1508,
      "Ġsl": 1509,
      "Ġthink": 1510,
      "Ġdesc": 1511,
      "Ġair": 1512,
      "sc": 1513,
      "ogn": 1514,
      "atural": 1515,
      "Ġbas": 1516,
      "Ġfunction": 1517,
      "erc": 1518,
      "ling": 1519,
      "ote": 1520,
      "ĠPh": 1521,
      "oring": 1522,
      "Ġagainst": 1523,
      "imate": 1524,
      "Ġlaw": 1525,
      "ients": 1526,
      "ext": 1527,
      "Ġgroup": 1528,
      "Ġoper": 1529,
      "Ġmeans": 1530,
      "here": 1531,
      "Ġrest": 1532,
      "Ġcontrol": 1533,
      "Ġdev": 1534,
      "Ġhere": 1535,
      "ograph": 1536,
      "path": 1537,
      "Ġprovide": 1538,
      "':": 1539,
      "urther": 1540,
      "ĠSh": 1541,
      "Ġparticular": 1542,
      "Ġanim": 1543,
      "Ġhy": 1544,
      "Ġseveral": 1545,
      "Ġsignificant": 1546,
      "ĠAmerican": 1547,
      "ember": 1548,
      "Ġbus": 1549,
      "ĠWhen": 1550,
      "ĠâĢĺ": 1551,
      "Ġbased": 1552,
      "arth": 1553,
      "Ġwomen": 1554,
      "eral": 1555,
      "Ġpain": 1556,
      "Ġarea": 1557,
      "me": 1558,
      "//": 1559,
      "sy": 1560,
      "rop": 1561,
      "Ġtre": 1562,
      "ards": 1563,
      "Ġfamily": 1564,
      "ots": 1565,
      "Ġpotential": 1566,
      "iver": 1567,
      "Ġdue": 1568,
      "Ġobject": 1569,
      "Ġenc": 1570,
      "err": 1571,
      "resent": 1572,
      "Ġold": 1573,
      "Ġcurrent": 1574,
      "Ġmult": 1575,
      "Ġtry": 1576,
      "Ġ:": 1577,
      "Ġprogram": 1578,
      "ortun": 1579,
      "Ġens": 1580,
      "aper": 1581,
      "Ġeconom": 1582,
      "Ġbeg": 1583,
      "Ġearly": 1584,
      "âĢľ": 1585,
      "Ġfil": 1586,
      "Ġlab": 1587,
      "Ġcal": 1588,
      "It": 1589,
      "Ġve": 1590,
      "Ġtoget": 1591,
      "Ġtogether": 1592,
      "Ġfocus": 1593,
      "Ġaccess": 1594,
      "sh": 1595,
      "Ġlast": 1596,
      "Ġunt": 1597,
      "Ġant": 1598,
      "Ġes": 1599,
      "Ġbenef": 1600,
      "['": 1601,
      "uture": 1602,
      "Ġnon": 1603,
      "def": 1604,
      "lished": 1605,
      "ĠQ": 1606,
      "Ġturn": 1607,
      "ission": 1608,
      "Ġlim": 1609,
      "Ġstruct": 1610,
      "Ġdisease": 1611,
      "br": 1612,
      "amp": 1613,
      "set": 1614,
      "ditions": 1615,
      "Ġorig": 1616,
      "ploy": 1617,
      "ajor": 1618,
      "Ġfre": 1619,
      "Ġ\"\"\"": 1620,
      "Ġrisk": 1621,
      "Ġsoci": 1622,
      "Ġfore": 1623,
      "Ġsuccess": 1624,
      "Ġmaking": 1625,
      "ĠTo": 1626,
      ",\"": 1627,
      "Ġprint": 1628,
      "ication": 1629,
      "Ġopt": 1630,
      "Ġavail": 1631,
      "Ġbi": 1632,
      "oid": 1633,
      "Ġcrit": 1634,
      "orth": 1635,
      "Ġpossible": 1636,
      "work": 1637,
      "ĠUniversity": 1638,
      "gen": 1639,
      "rist": 1640,
      "ression": 1641,
      "Ġlow": 1642,
      "Ġsay": 1643,
      "ĠSo": 1644,
      "Ġimpact": 1645,
      "Ġkey": 1646,
      "Ġcertain": 1647,
      "aut": 1648,
      "ribut": 1649,
      "Ġcr": 1650,
      "sel": 1651,
      "ĠPl": 1652,
      "As": 1653,
      "Ġbo": 1654,
      "Ġmil": 1655,
      "ĉĉ": 1656,
      "Ġperiod": 1657,
      "Ġrun": 1658,
      "min": 1659,
      "Ġscient": 1660,
      "ĠCl": 1661,
      "Ġ{": 1662,
      "Ġmill": 1663,
      "agement": 1664,
      "Ġgr": 1665,
      "Ġland": 1666,
      "idence": 1667,
      "cle": 1668,
      "Ġfri": 1669,
      "Ġblood": 1670,
      "Ġcase": 1671,
      "Ġ*": 1672,
      "Ġ.": 1673,
      "ane": 1674,
      "Ġsince": 1675,
      "hem": 1676,
      "ides": 1677,
      "Ġspecific": 1678,
      "Ġlocal": 1679,
      "Ġhead": 1680,
      "Ġpost": 1681,
      "ann": 1682,
      "Ġalong": 1683,
      "clus": 1684,
      "Ġvalue": 1685,
      "Ġorder": 1686,
      "ems": 1687,
      "----------------": 1688,
      "Ġoccur": 1689,
      "Ġcome": 1690,
      "ĠSp": 1691,
      "Ġdiscuss": 1692,
      "Ġgovernment": 1693,
      "Ġtext": 1694,
      "Ġfollowing": 1695,
      "olution": 1696,
      "ww": 1697,
      "ĠEn": 1698,
      "Ġacross": 1699,
      "Ġconc": 1700,
      "Ġwhy": 1701,
      "pre": 1702,
      "ĠĠĠĠĠĠĠĠĠĠĠĠĠĠĠĠ": 1703,
      "cer": 1704,
      "icle": 1705,
      "Ġaddition": 1706,
      "ledge": 1707,
      "Ġcost": 1708,
      "raw": 1709,
      "for": 1710,
      "Ġtimes": 1711,
      "ĠCol": 1712,
      "mit": 1713,
      "of": 1714,
      "\")": 1715,
      "ilar": 1716,
      "by": 1717,
      "ised": 1718,
      "ending": 1719,
      "Ġcomput": 1720,
      "Ġareas": 1721,
      "Ġprofess": 1722,
      "Ġhig": 1723,
      "hy": 1724,
      "Ġunderstanding": 1725,
      "use": 1726,
      "alk": 1727,
      "Ġcause": 1728,
      "Ġlik": 1729,
      "Ġable": 1730,
      "Ġtoward": 1731,
      "Ġproblem": 1732,
      "Ġter": 1733,
      "Ġsystems": 1734,
      "Ġbro": 1735,
      "Ġassoci": 1736,
      "Ġview": 1737,
      "aster": 1738,
      "Ġmajor": 1739,
      "Ġcourse": 1740,
      "ument": 1741,
      "://": 1742,
      "Ġmodel": 1743,
      "yn": 1744,
      "Ġelse": 1745,
      "Ġprevent": 1746,
      "ole": 1747,
      "Ġinvest": 1748,
      "ĠIm": 1749,
      "],": 1750,
      "ilities": 1751,
      "Ġarg": 1752,
      "ended": 1753,
      "ER": 1754,
      "Ġintern": 1755,
      "ably": 1756,
      "Ġpress": 1757,
      "Ġ==": 1758,
      "Ġhard": 1759,
      "idd": 1760,
      "Ġline": 1761,
      "ights": 1762,
      "Ġtool": 1763,
      "ooks": 1764,
      "Ġrelations": 1765,
      "not": 1766,
      "Ġspecial": 1767,
      "ones": 1768,
      "osed": 1769,
      "Ġavailable": 1770,
      "Ġconsider": 1771,
      "Ġspecies": 1772,
      "Ġcommunity": 1773,
      "Ġfuture": 1774,
      "Ġcomb": 1775,
      "Ġbehav": 1776,
      "ĠZ": 1777,
      "ggest": 1778,
      "Ġapplic": 1779,
      "What": 1780,
      "sw": 1781,
      "Ġnatural": 1782,
      "Ġplant": 1783,
      "Ġcomplex": 1784,
      "ams": 1785,
      "Ġexperience": 1786,
      "ina": 1787,
      "cul": 1788,
      "Ġlanguage": 1789,
      "though": 1790,
      "Ġrole": 1791,
      "Ġx": 1792,
      "Ġuntil": 1793,
      "Ġrele": 1794,
      "Ġrespons": 1795,
      "Ġsecond": 1796,
      "ĠUnited": 1797,
      "Ġcountry": 1798,
      "\":": 1799,
      "Ġmen": 1800,
      "Ġpolit": 1801,
      "iting": 1802,
      "face": 1803,
      "Ġrece": 1804,
      "Ġyoung": 1805,
      "Ġworks": 1806,
      "aring": 1807,
      "rag": 1808,
      "acy": 1809,
      "aps": 1810,
      "Ġalways": 1811,
      "ĠWhat": 1812,
      "aces": 1813,
      "ĠAt": 1814,
      "obal": 1815,
      "ĠOr": 1816,
      "asing": 1817,
      "ask": 1818,
      "ope": 1819,
      "Ġsuggest": 1820,
      "osp": 1821,
      "Ġexist": 1822,
      "urope": 1823,
      "data": 1824,
      "Ġlevels": 1825,
      "Ġindust": 1826,
      "icult": 1827,
      "Ġproblems": 1828,
      "izing": 1829,
      "Ġput": 1830,
      "Ġmar": 1831,
      "ained": 1832,
      "Ġstep": 1833,
      "Ġtoday": 1834,
      "Ġtechnology": 1835,
      "Ġgiven": 1836,
      "Ġstrong": 1837,
      "Ġlittle": 1838,
      "ĠGod": 1839,
      "Ġsw": 1840,
      "ĠâĢĶ": 1841,
      "Ġcir": 1842,
      "Ġcharacter": 1843,
      "Ġresults": 1844,
      "Ġrange": 1845,
      "ek": 1846,
      "istic": 1847,
      "ĠThat": 1848,
      "Ġtreatment": 1849,
      "Ġage": 1850,
      "ored": 1851,
      "reen": 1852,
      "Ġways": 1853,
      "ysis": 1854,
      "cur": 1855,
      "ths": 1856,
      "ators": 1857,
      "Ġnecess": 1858,
      "Ġobs": 1859,
      "Ġvol": 1860,
      "Ġbusiness": 1861,
      "lement": 1862,
      "Ġbook": 1863,
      "omm": 1864,
      "selves": 1865,
      "ont": 1866,
      "Ġnext": 1867,
      "ivity": 1868,
      "Ġfar": 1869,
      "Ġpercent": 1870,
      "Ġlarg": 1871,
      "Ġdeterm": 1872,
      "ik": 1873,
      "Ġflow": 1874,
      "orts": 1875,
      "Ġfour": 1876,
      "Ġdem": 1877,
      "ither": 1878,
      "Ġinflu": 1879,
      "Ġrepresent": 1880,
      "co": 1881,
      "We": 1882,
      "aging": 1883,
      "thing": 1884,
      "Ġ$": 1885,
      "orld": 1886,
      "Ġsimilar": 1887,
      "Ġeducation": 1888,
      "apt": 1889,
      "Ġshort": 1890,
      "Ġworking": 1891,
      "Ġz": 1892,
      "ables": 1893,
      "Ġchalleng": 1894,
      "Ġessential": 1895,
      "Ġpast": 1896,
      "ĠAf": 1897,
      "Ġspace": 1898,
      "Ġill": 1899,
      "Ġsing": 1900,
      "lab": 1901,
      "Ġamount": 1902,
      "Ġ**": 1903,
      "Ġfree": 1904,
      "ym": 1905,
      "etimes": 1906,
      "atures": 1907,
      "side": 1908,
      "Ġconcept": 1909,
      "ĠEurope": 1910,
      "Ġheart": 1911,
      "atory": 1912,
      "Ġwar": 1913,
      "Ġvir": 1914,
      "ured": 1915,
      "Ġlater": 1916,
      "Ġbir": 1917,
      "ĠStates": 1918,
      "Ġauthor": 1919,
      "Ġconditions": 1920,
      "Ġsays": 1921,
      "duct": 1922,
      "Ġneeds": 1923,
      "Ġwords": 1924,
      "Ġnet": 1925,
      "ĠChrist": 1926,
      "ĊĠĠĠĠĠĠĠĠĠĠĠĠĠĠĠĠĠĠĠ": 1927,
      "Ġgive": 1928,
      "ĠWith": 1929,
      "Ġinit": 1930,
      "ĠTe": 1931,
      "eter": 1932,
      "NA": 1933,
      "ĠBe": 1934,
      "une": 1935,
      "icro": 1936,
      "If": 1937,
      "Ġmov": 1938,
      "af": 1939,
      "onse": 1940,
      "Ġpaper": 1941,
      "Ġkind": 1942,
      "ĠNone": 1943,
      "vious": 1944,
      "Ġmind": 1945,
      "ires": 1946,
      "Ġimprove": 1947,
      "Ġpolic": 1948,
      "Ġey": 1949,
      "inc": 1950,
      "ule": 1951,
      "Ġresources": 1952,
      "Ġhaving": 1953,
      "Ġskills": 1954,
      "Ġfield": 1955,
      "Ġbegin": 1956,
      "Ġconsum": 1957,
      "Ġparent": 1958,
      "Ġexpect": 1959,
      "Ġcells": 1960,
      "Ġrad": 1961,
      "Ġquestion": 1962,
      "ĠOne": 1963,
      "Ġteac": 1964,
      "Ġpred": 1965,
      "Ġtradition": 1966,
      "Ġknowledge": 1967,
      "ibility": 1968,
      "``": 1969,
      "ours": 1970,
      "Ġchanges": 1971,
      "Ġappear": 1972,
      "Ġjour": 1973,
      "Ġissues": 1974,
      "Ġestab": 1975,
      "lection": 1976,
      "Ġstory": 1977,
      "ĠCan": 1978,
      "ili": 1979,
      "Ġupon": 1980,
      "Ġmot": 1981,
      "Ġconcern": 1982,
      "pecially": 1983,
      "Ġrequire": 1984,
      "ĠOn": 1985,
      "Ġrelationship": 1986,
      "Ġstrateg": 1987,
      "arget": 1988,
      "etic": 1989,
      "Ġdifficult": 1990,
      "Ġwhether": 1991,
      "ee": 1992,
      "Ġlog": 1993,
      "ening": 1994,
      "Ġtypes": 1995,
      "Ġprim": 1996,
      "Ġsens": 1997,
      "Ġask": 1998,
      "ush": 1999,
      "Ġtemper": 2000,
      "Ġenough": 2001,
      "ales": 2002,
      "Ġlikely": 2003,
      "Ġrecord": 2004,
      "iple": 2005,
      "ĠInst": 2006,
      "Ġusually": 2007,
      "ger": 2008,
      "Ġdays": 2009,
      "nal": 2010,
      "inking": 2011,
      "Ġhistor": 2012,
      "apter": 2013,
      "Ġaddress": 2014,
      "ĠSome": 2015,
      "let": 2016,
      "import": 2017,
      "ĠAll": 2018,
      "aching": 2019,
      "How": 2020,
      "chie": 2021,
      "Ġmakes": 2022,
      "Ġopportun": 2023,
      "ĠCent": 2024,
      "Ġaway": 2025,
      "...": 2026,
      "Ġnorm": 2027,
      "Ġsum": 2028,
      "Ġquestions": 2029,
      "Ġfurther": 2030,
      "====": 2031,
      "iction": 2032,
      "Ġresearc": 2033,
      "son": 2034,
      "ruction": 2035,
      "oney": 2036,
      "Ġprotect": 2037,
      "ĠUS": 2038,
      "ising": 2039,
      "omes": 2040,
      "ried": 2041,
      "Ġever": 2042,
      "cient": 2043,
      "ware": 2044,
      "Ġgoing": 2045,
      "ffic": 2046,
      "Ġdig": 2047,
      "Ġindividuals": 2048,
      "Ġleft": 2049,
      "Ġpath": 2050,
      "Ġaccount": 2051,
      "aken": 2052,
      "oot": 2053,
      "ibr": 2054,
      "ued": 2055,
      "Ġi": 2056,
      "Ġemploy": 2057,
      "type": 2058,
      "ification": 2059,
      "Ġlay": 2060,
      "Ġhigher": 2061,
      "AT": 2062,
      "Ġgrowth": 2063,
      "class": 2064,
      "Ġur": 2065,
      "Ġbig": 2066,
      "Ġ<": 2067,
      "To": 2068,
      "='": 2069,
      "Ġcentury": 2070,
      "ĠNational": 2071,
      "Ġcollect": 2072,
      "Ġfull": 2073,
      "ney": 2074,
      "Ġcountries": 2075,
      "Ġsuper": 2076,
      "._": 2077,
      "amm": 2078,
      "ĠAfric": 2079,
      "aves": 2080,
      "Ġincrease": 2081,
      "Ġsitu": 2082,
      "Ch": 2083,
      "Ġconnect": 2084,
      "rans": 2085,
      "plic": 2086,
      "Ġfund": 2087,
      "ooking": 2088,
      "An": 2089,
      "Ġsure": 2090,
      "Ġstat": 2091,
      "Ġscience": 2092,
      "Ġnever": 2093,
      "Ġrecogn": 2094,
      "erence": 2095,
      "Ġdescrib": 2096,
      "ES": 2097,
      "Ġexc": 2098,
      "Ġphysical": 2099,
      "Ġcy": 2100,
      "ĠMed": 2101,
      "ohn": 2102,
      "Ġside": 2103,
      "add": 2104,
      "reg": 2105,
      "Ġbrain": 2106,
      "Ġhowever": 2107,
      "arl": 2108,
      "Ġplants": 2109,
      "arr": 2110,
      "verse": 2111,
      "Ġdeath": 2112,
      "IN": 2113,
      "ĠBl": 2114,
      "Ġterm": 2115,
      "Ġunique": 2116,
      "Ġespecially": 2117,
      "Ġground": 2118,
      "Ġgroups": 2119,
      "Ġabove": 2120,
      "Ġevent": 2121,
      "There": 2122,
      "Ġactivities": 2123,
      "Ġleast": 2124,
      "Ġmaintain": 2125,
      "Ġthroughout": 2126,
      "Ġcontain": 2127,
      "########": 2128,
      "test": 2129,
      "most": 2130,
      "ault": 2131,
      "elling": 2132,
      "ĠFr": 2133,
      "Ġparticip": 2134,
      "agine": 2135,
      "Ġemb": 2136,
      "ilt": 2137,
      "Ġsubject": 2138,
      "Ġsound": 2139,
      "alse": 2140,
      "Ġnear": 2141,
      "Ġachie": 2142,
      "Ġpersonal": 2143,
      "edi": 2144,
      "sych": 2145,
      "utions": 2146,
      "ĠSc": 2147,
      "Ġmodern": 2148,
      "ready": 2149,
      "lying": 2150,
      "Ġaffect": 2151,
      "sequ": 2152,
      "file": 2153,
      "ON": 2154,
      "Ġpopulation": 2155,
      "Ġdam": 2156,
      "Ġstudies": 2157,
      "Ġneg": 2158,
      "Ġreally": 2159,
      "fact": 2160,
      "Ġrather": 2161,
      "ptoms": 2162,
      "Ġbecame": 2163,
      "ison": 2164,
      "Ġeffects": 2165,
      "Ġreason": 2166,
      "rug": 2167,
      "rect": 2168,
      "ils": 2169,
      "aim": 2170,
      "ites": 2171,
      "mod": 2172,
      "Ġcancer": 2173,
      "Ġquality": 2174,
      "Ġrelig": 2175,
      "Ġliter": 2176,
      "Ġnature": 2177,
      "asc": 2178,
      "Ġ`": 2179,
      "Ġpractice": 2180,
      "rel": 2181,
      "illed": 2182,
      "Ġchem": 2183,
      "Ġloss": 2184,
      "atives": 2185,
      "nces": 2186,
      "ĠBrit": 2187,
      "Ġassociated": 2188,
      "unt": 2189,
      "ises": 2190,
      "Ġpattern": 2191,
      "att": 2192,
      "For": 2193,
      "Ġbuilding": 2194,
      "issue": 2195,
      "Ġansw": 2196,
      "roll": 2197,
      "Ġstre": 2198,
      "Ġcases": 2199,
      "Ġpatients": 2200,
      "ample": 2201,
      "Ġdetail": 2202,
      "Ġsize": 2203,
      "Ġcho": 2204,
      "Ġhold": 2205,
      "Ġsomeone": 2206,
      "Ġvers": 2207,
      "Ġlower": 2208,
      "alf": 2209,
      "Ġgeneral": 2210,
      "AS": 2211,
      "Ġfactors": 2212,
      "overed": 2213,
      "enn": 2214,
      "Ġmillion": 2215,
      "Ġcomes": 2216,
      "Ġexplore": 2217,
      "opy": 2218,
      "Al": 2219,
      "Ġmeet": 2220,
      "Ġalready": 2221,
      "Ġstudent": 2222,
      "eds": 2223,
      "Ġglobal": 2224,
      "rams": 2225,
      "Ġdoc": 2226,
      "\".": 2227,
      "oman": 2228,
      "Ġword": 2229,
      "ene": 2230,
      "ok": 2231,
      "Ġsimple": 2232,
      "inary": 2233,
      "Ġregard": 2234,
      "ript": 2235,
      "Ġnut": 2236,
      "mb": 2237,
      "ID": 2238,
      "Ġintrodu": 2239,
      "Ġcity": 2240,
      "new": 2241,
      "Ġliving": 2242,
      "augh": 2243,
      "Ġsingle": 2244,
      "Ġprob": 2245,
      "iques": 2246,
      "Ġindic": 2247,
      "Ġabs": 2248,
      "Ġmembers": 2249,
      "ĠLe": 2250,
      "Ġwind": 2251,
      "verage": 2252,
      "Ġthemselves": 2253,
      "Ġmaterials": 2254,
      "])": 2255,
      "time": 2256,
      "Ġsource": 2257,
      "Ġtowards": 2258,
      "ips": 2259,
      "ĠWorld": 2260,
      "Ġphot": 2261,
      "Ġproduction": 2262,
      "Ġobserv": 2263,
      "ival": 2264,
      "Ġrespect": 2265,
      "Ġdom": 2266,
      "Ġeither": 2267,
      "Ġonce": 2268,
      "Ġseen": 2269,
      "rad": 2270,
      "Ġdeg": 2271,
      "Ġ/": 2272,
      "ĠX": 2273,
      "anced": 2274,
      "Ġthought": 2275,
      "Ġdeep": 2276,
      "ring": 2277,
      "ĠGerm": 2278,
      "ott": 2279,
      "ung": 2280,
      "leep": 2281,
      "Ġut": 2282,
      "col": 2283,
      "inter": 2284,
      "AR": 2285,
      "iol": 2286,
      "ĠWar": 2287,
      "Ġjob": 2288,
      "Ġaccording": 2289,
      "Ġpay": 2290,
      "Ġhouse": 2291,
      "ley": 2292,
      "Ġresearchers": 2293,
      "Ġdone": 2294,
      "org": 2295,
      "ae": 2296,
      "Ġemot": 2297,
      "Ġinteract": 2298,
      "Ġteam": 2299,
      "hern": 2300,
      "Ġfile": 2301,
      "ened": 2302,
      "Ġver": 2303,
      "Ġcut": 2304,
      "rict": 2305,
      "ĠShe": 2306,
      "ird": 2307,
      "enc": 2308,
      "Ġrequired": 2309,
      "ules": 2310,
      "Ġhelps": 2311,
      "Ġcreated": 2312,
      "Ġactivity": 2313,
      "adem": 2314,
      "earch": 2315,
      "'re": 2316,
      "ipp": 2317,
      "Ġanalysis": 2318,
      "Ġfail": 2319,
      "Ġproducts": 2320,
      "ĠEnglish": 2321,
      "ĠJohn": 2322,
      "epend": 2323,
      "ĠComm": 2324,
      "Ġaspect": 2325,
      "hold": 2326,
      "Ġengine": 2327,
      "Ġinteg": 2328,
      "Ġonline": 2329,
      "Ġlive": 2330,
      "itud": 2331,
      "Ġfall": 2332,
      "Ġnp": 2333,
      "my": 2334,
      "Ġfig": 2335,
      "Ġsymptoms": 2336,
      "Ġmethods": 2337,
      "fully": 2338,
      "Ġfrequ": 2339,
      "Ġmedical": 2340,
      "Ġlot": 2341,
      "Ġmarket": 2342,
      "Ġmanagement": 2343,
      "fer": 2344,
      "go": 2345,
      "otes": 2346,
      "ler": 2347,
      "Ġtot": 2348,
      "Ġeffic": 2349,
      "Ġneeded": 2350,
      "ĠGo": 2351,
      "oose": 2352,
      "Ġaction": 2353,
      "fl": 2354,
      "Ġanimals": 2355,
      "Ġpolitical": 2356,
      "Ġpie": 2357,
      "Ġcirc": 2358,
      "Ġidea": 2359,
      "ivil": 2360,
      "place": 2361,
      "Ġsent": 2362,
      "rand": 2363,
      "Ġevidence": 2364,
      "Ġquick": 2365,
      "Ġflu": 2366,
      "ĊĠĠĠĠ": 2367,
      "ĠStud": 2368,
      "Ġreduce": 2369,
      "Ġtarget": 2370,
      "Ġnecessary": 2371,
      "aries": 2372,
      "Ġbreak": 2373,
      "Ġsociety": 2374,
      "Ġsoft": 2375,
      "Ġsurface": 2376,
      "Ġrecomm": 2377,
      "Ġpopular": 2378,
      "ĠHealth": 2379,
      "Ġcolor": 2380,
      "Ġensure": 2381,
      "Ġred": 2382,
      "ĠPr": 2383,
      "way": 2384,
      "Ġwriting": 2385,
      "load": 2386,
      "Ġrights": 2387,
      "Ġsun": 2388,
      "Ġmass": 2389,
      "Ġactually": 2390,
      "Ġparts": 2391,
      "lt": 2392,
      "key": 2393,
      "Ġmess": 2394,
      "Ġseem": 2395,
      "Ġvalues": 2396,
      "Ġlives": 2397,
      "clusion": 2398,
      "Ġport": 2399,
      "oph": 2400,
      "sp": 2401,
      "list": 2402,
      "bon": 2403,
      "ze": 2404,
      "ĠMay": 2405,
      "Ġsometimes": 2406,
      "yle": 2407,
      "Ġyet": 2408,
      "Ġoffic": 2409,
      "chan": 2410,
      "reng": 2411,
      "Ġclimate": 2412,
      "ulations": 2413,
      "cial": 2414,
      "Ġentire": 2415,
      "aling": 2416,
      "Ġge": 2417,
      "Ġarr": 2418,
      "Ġshare": 2419,
      "Ġincreased": 2420,
      "Ġrate": 2421,
      "Ġcame": 2422,
      "ystem": 2423,
      "Ġapproach": 2424,
      "oration": 2425,
      "Ġresponse": 2426,
      "When": 2427,
      "Ġfriends": 2428,
      "Ġcommunities": 2429,
      "Ġeffective": 2430,
      "Ġsal": 2431,
      "ma": 2432,
      "Ġprovides": 2433,
      "Ġdest": 2434,
      "Ġstress": 2435,
      "Ġencou": 2436,
      "Ġclear": 2437,
      "ĠAm": 2438,
      "ĠAss": 2439,
      "ustom": 2440,
      "Ġbelow": 2441,
      "erous": 2442,
      "Ġimage": 2443,
      "Ġwhole": 2444,
      "ĠWhile": 2445,
      "Ġdoct": 2446,
      "ĠGen": 2447,
      "Ġnational": 2448,
      "Ġsubst": 2449,
      "aged": 2450,
      "ublic": 2451,
      "Ġdeveloped": 2452,
      "ply": 2453,
      "olic": 2454,
      "Ġmeaning": 2455,
      "Ġpressure": 2456,
      "Ġarch": 2457,
      "Ġhealthy": 2458,
      "erve": 2459,
      "OR": 2460,
      "ender": 2461,
      "Ġexerc": 2462,
      "idered": 2463,
      "II": 2464,
      "Ġservices": 2465,
      "Ġevents": 2466,
      "urch": 2467,
      "Ġcontext": 2468,
      "osis": 2469,
      "Ġability": 2470,
      "Ġ%": 2471,
      "acks": 2472,
      "Ġtaken": 2473,
      "Ġincreasing": 2474,
      "Ġcontinue": 2475,
      "ches": 2476,
      "Ġmusic": 2477,
      "Ġmoney": 2478,
      "ores": 2479,
      "lex": 2480,
      "Ġ)": 2481,
      "Ġavoid": 2482,
      "Ġ_": 2483,
      "Ġrelated": 2484,
      "ĠAb": 2485,
      "ttp": 2486,
      "acc": 2487,
      "Ġcompon": 2488,
      "Ġinstead": 2489,
      "Ġadult": 2490,
      "nov": 2491,
      "Ġemerg": 2492,
      "ĠAmerica": 2493,
      "atter": 2494,
      "istance": 2495,
      "Ġstates": 2496,
      "eration": 2497,
      "Ġtaking": 2498,
      "wh": 2499,
      "Ġconsidered": 2500,
      "light": 2501,
      "ctions": 2502,
      "ĠDr": 2503,
      "Ġ|": 2504,
      "Ġtell": 2505,
      "ĠMan": 2506,
      "ĠInt": 2507,
      "ront": 2508,
      "oon": 2509,
      "ĠIntern": 2510,
      "itation": 2511,
      "ength": 2512,
      "ĠGe": 2513,
      "Ġmicro": 2514,
      "imately": 2515,
      "Ex": 2516,
      "Ġculture": 2517,
      "Ġallows": 2518,
      "ges": 2519,
      "amed": 2520,
      "Ġann": 2521,
      "ume": 2522,
      "Ġreview": 2523,
      "Ġarticle": 2524,
      "Ġmach": 2525,
      "Ġcannot": 2526,
      "Ġthera": 2527,
      "ĠSci": 2528,
      "Ġchallenges": 2529,
      "Ġsite": 2530,
      "Ġfive": 2531,
      "Ġpriv": 2532,
      "play": 2533,
      "Ġtraining": 2534,
      "hing": 2535,
      "Ġeconomic": 2536,
      "Ġwhite": 2537,
      "ump": 2538,
      "Ġreading": 2539,
      "ĠCal": 2540,
      "part": 2541,
      "based": 2542,
      "Ġbal": 2543,
      "Ġtechniques": 2544,
      "Ġcheck": 2545,
      "Ġenvironmental": 2546,
      "Ġdrug": 2547,
      "Ġposition": 2548,
      "Ġtools": 2549,
      "ĠAfter": 2550,
      "irm": 2551,
      "Ġmor": 2552,
      "ĠEm": 2553,
      "ai": 2554,
      "Ġbehavior": 2555,
      "Ġtraditional": 2556,
      "Con": 2557,
      "ĠCont": 2558,
      "order": 2559,
      "Ġexcept": 2560,
      "Ġharm": 2561,
      "utes": 2562,
      "init": 2563,
      "ribute": 2564,
      "Ġclos": 2565,
      "ari": 2566,
      "Ġdoing": 2567,
      "aced": 2568,
      "hib": 2569,
      "Ġassess": 2570,
      "het": 2571,
      "iment": 2572,
      "Ġeveryone": 2573,
      "Ġskin": 2574,
      "iddle": 2575,
      "amin": 2576,
      "Ġclean": 2577,
      "come": 2578,
      "like": 2579,
      "Ġcompet": 2580,
      "Ġitself": 2581,
      "ĠSouth": 2582,
      "Ġcomputer": 2583,
      "aving": 2584,
      "Ġbegan": 2585,
      "oes": 2586,
      "Ġpublished": 2587,
      "Ġsense": 2588,
      "eed": 2589,
      "ĠApp": 2590,
      "ĠEarth": 2591,
      "Ġstreng": 2592,
      "uck": 2593,
      "pose": 2594,
      "Ġreact": 2595,
      "But": 2596,
      "aches": 2597,
      "ey": 2598,
      "esc": 2599,
      "ops": 2600,
      "ĠNorth": 2601,
      "pri": 2602,
      "pid": 2603,
      "mber": 2604,
      "Ġweek": 2605,
      "Ġlove": 2606,
      "astic": 2607,
      "itor": 2608,
      "Ġcritical": 2609,
      "iet": 2610,
      "ype": 2611,
      "Ġremain": 2612,
      "Ġweight": 2613,
      "Ġdemon": 2614,
      "fig": 2615,
      "ground": 2616,
      "know": 2617,
      "Ġla": 2618,
      "Ġcondition": 2619,
      "dom": 2620,
      "Ġmeasure": 2621,
      "ĠHist": 2622,
      "empt": 2623,
      "Ġbenefits": 2624,
      "ele": 2625,
      "Ġoffer": 2626,
      "Ġcontent": 2627,
      "aily": 2628,
      "Ġtrue": 2629,
      "Ġaccept": 2630,
      "Ġmatter": 2631,
      "Ġblack": 2632,
      "Ġsepar": 2633,
      "Ġdraw": 2634,
      "Ġbring": 2635,
      "Ġrev": 2636,
      "Ġtook": 2637,
      "Ġmedic": 2638,
      "isc": 2639,
      "Ġprote": 2640,
      "joy": 2641,
      "Ġcultural": 2642,
      "Ġsat": 2643,
      "Ġcat": 2644,
      "Ġfeed": 2645,
      "ĠAct": 2646,
      "Ġexperiences": 2647,
      "Ġinstance": 2648,
      "Ġregular": 2649,
      "ĠAust": 2650,
      "cont": 2651,
      "Ġparents": 2652,
      "Ġcru": 2653,
      "Ġgreen": 2654,
      "Ġhab": 2655,
      "Ġterms": 2656,
      "itary": 2657,
      "bl": 2658,
      "istics": 2659,
      "pite": 2660,
      "args": 2661,
      "Ġconduct": 2662,
      "raft": 2663,
      "Ġoil": 2664,
      "Ġsust": 2665,
      "Ġimplement": 2666,
      "Ġexpress": 2667,
      "yl": 2668,
      "Ġidentify": 2669,
      "Ġcapt": 2670,
      "=\"": 2671,
      "Ġprevious": 2672,
      "ields": 2673,
      "Ġattention": 2674,
      "avor": 2675,
      "back": 2676,
      ".)": 2677,
      "Ġstructure": 2678,
      "vere": 2679,
      "EN": 2680,
      "icles": 2681,
      "equ": 2682,
      "You": 2683,
      "Ġstories": 2684,
      "oll": 2685,
      "Ġetc": 2686,
      "itution": 2687,
      "Ġdat": 2688,
      "orks": 2689,
      "Ġproduce": 2690,
      "inf": 2691,
      "text": 2692,
      "ĠGu": 2693,
      "hood": 2694,
      "Ġregion": 2695,
      "Now": 2696,
      "rown": 2697,
      "Ġfish": 2698,
      "head": 2699,
      "Ġdemonstr": 2700,
      "Ġmultiple": 2701,
      "Ġselect": 2702,
      "Wh": 2703,
      "Ġmonths": 2704,
      "One": 2705,
      "ift": 2706,
      "ging": 2707,
      "artment": 2708,
      "ername": 2709,
      "Ġsex": 2710,
      "Ġprovided": 2711,
      "ister": 2712,
      "eb": 2713,
      "Ġdiet": 2714,
      "Ġface": 2715,
      "alu": 2716,
      "Ġforms": 2717,
      "Ġpractices": 2718,
      "Ġtotal": 2719,
      "ĠRep": 2720,
      "IS": 2721,
      "Ġminim": 2722,
      "Ġunit": 2723,
      "Ġdesigned": 2724,
      "Ġsuff": 2725,
      "uel": 2726,
      "Ġcompany": 2727,
      "Ġelements": 2728,
      "Ġindustry": 2729,
      "isions": 2730,
      "Ġpositive": 2731,
      "ror": 2732,
      "Ġcreating": 2733,
      "Ġconsist": 2734,
      "ided": 2735,
      "ĠHis": 2736,
      "Ġhours": 2737,
      "čĊ": 2738,
      "Ġvide": 2739,
      "bo": 2740,
      "Ġreflect": 2741,
      "error": 2742,
      "Ġalmost": 2743,
      "Ġshows": 2744,
      "Ġhalf": 2745,
      "ĠSu": 2746,
      "Ġyourself": 2747,
      "Ġaim": 2748,
      "Ġpsych": 2749,
      "ows": 2750,
      "Ġheav": 2751,
      "ober": 2752,
      "Ġbar": 2753,
      "Ġservice": 2754,
      "Ġparticularly": 2755,
      "Ã©": 2756,
      "ensive": 2757,
      "Ġ__": 2758,
      "date": 2759,
      "Ġfat": 2760,
      "Ġdoesn": 2761,
      "Ġanaly": 2762,
      "Ġsoil": 2763,
      "Ġschools": 2764,
      "Ġrecent": 2765,
      "Ġclaim": 2766,
      "Ġdog": 2767,
      "umn": 2768,
      "Ġfarm": 2769,
      "Ġcontact": 2770,
      "right": 2771,
      "Ġeth": 2772,
      "Ġinvolved": 2773,
      "Ġprograms": 2774,
      "Ġthing": 2775,
      "ners": 2776,
      "Im": 2777,
      "Ġcontribut": 2778,
      "Ġtemperature": 2779,
      "ike": 2780,
      "elt": 2781,
      "Ġmechan": 2782,
      "ĠMore": 2783,
      "irit": 2784,
      "Ġsources": 2785,
      "urs": 2786,
      "True": 2787,
      "Ġsimply": 2788,
      "ĠYour": 2789,
      "[\"": 2790,
      "itle": 2791,
      "thon": 2792,
      "Ġcommit": 2793,
      "rast": 2794,
      "Ġlink": 2795,
      "ese": 2796,
      "hel": 2797,
      "Ġoriginal": 2798,
      "arily": 2799,
      "Ġclose": 2800,
      "Ġsleep": 2801,
      "Ġdeb": 2802,
      "ming": 2803,
      "aff": 2804,
      "ccording": 2805,
      "rim": 2806,
      "Ġeasy": 2807,
      "fil": 2808,
      "iation": 2809,
      "AN": 2810,
      "Ġgas": 2811,
      "Ġer": 2812,
      "ster": 2813,
      "Ġextra": 2814,
      "Ġenjoy": 2815,
      "ties": 2816,
      "Ġheat": 2817,
      "Ġste": 2818,
      "Ġchemical": 2819,
      "ĠPe": 2820,
      "Ġideas": 2821,
      "Ġmax": 2822,
      "ched": 2823,
      "Ġspread": 2824,
      "rage": 2825,
      "Ġenh": 2826,
      "Ġtravel": 2827,
      "ĠMar": 2828,
      "âĢ¦": 2829,
      "čĊĠĠĠĠĠĠĠ": 2830,
      "ription": 2831,
      "rem": 2832,
      "rs": 2833,
      "Ġsurv": 2834,
      "rior": 2835,
      "oin": 2836,
      "Ġbuilt": 2837,
      "ĠNo": 2838,
      "Ġaware": 2839,
      "orpor": 2840,
      "Ġstarted": 2841,
      "Ġled": 2842,
      "Ġissue": 2843,
      "Ġhistorical": 2844,
      "vey": 2845,
      "Ġpict": 2846,
      "ĠDep": 2847,
      "Ġlonger": 2848,
      "Ġfem": 2849,
      "ĠAg": 2850,
      "Ġperformance": 2851,
      "Ġgreater": 2852,
      "Ġstop": 2853,
      "ĠJew": 2854,
      "Ġwritten": 2855,
      "Ġoutside": 2856,
      "Ġinj": 2857,
      "Ġsurround": 2858,
      "Ġmodels": 2859,
      "ĠPar": 2860,
      "porary": 2861,
      "su": 2862,
      "ĠYork": 2863,
      "ounter": 2864,
      "ribution": 2865,
      "enced": 2866,
      "ĠMe": 2867,
      "ension": 2868,
      "Ġaud": 2869,
      "estern": 2870,
      "num": 2871,
      "Ġwild": 2872,
      "Ġcompan": 2873,
      "Ġlands": 2874,
      "Ġbelieve": 2875,
      "Ġpoints": 2876,
      "fect": 2877,
      "rig": 2878,
      "vant": 2879,
      "].": 2880,
      "itute": 2881,
      "ography": 2882,
      "Ġdiagn": 2883,
      "Ġfinanc": 2884,
      "Ġdecl": 2885,
      "Ġbeaut": 2886,
      "Ġcorrect": 2887,
      "ĠState": 2888,
      "ait": 2889,
      "Ġslow": 2890,
      "Ġmovement": 2891,
      "Ġfire": 2892,
      "Ġbehind": 2893,
      "Ġprogress": 2894,
      "curity": 2895,
      "Ġthreat": 2896,
      "Ġassert": 2897,
      "Ġmental": 2898,
      "Ġleading": 2899,
      "yond": 2900,
      "IT": 2901,
      "Ġmedia": 2902,
      "ervation": 2903,
      "ĠResearch": 2904,
      "Ġbooks": 2905,
      "oved": 2906,
      "Ġscientists": 2907,
      "Ġcommunication": 2908,
      "Ġcode": 2909,
      "Ġmom": 2910,
      "Ġones": 2911,
      "opt": 2912,
      "ĠCons": 2913,
      "Ġuser": 2914,
      "Ġremember": 2915,
      "che": 2916,
      "Ġfram": 2917,
      "izations": 2918,
      "ronic": 2919,
      "Ġstandard": 2920,
      "Ġviol": 2921,
      "eters": 2922,
      "ĠCo": 2923,
      "minist": 2924,
      "Ġuses": 2925,
      "Ġevalu": 2926,
      "ĠCanad": 2927,
      "ilies": 2928,
      "Ġcustom": 2929,
      "Ġadapt": 2930,
      "So": 2931,
      "Ġbroad": 2932,
      "Ġtakes": 2933,
      "inating": 2934,
      "apan": 2935,
      "Ġaltern": 2936,
      "Ġfru": 2937,
      "ĠBritish": 2938,
      "issions": 2939,
      "Ġcolle": 2940,
      "Ġdeveloping": 2941,
      "where": 2942,
      "ricult": 2943,
      "rate": 2944,
      "rew": 2945,
      "standing": 2946,
      "ban": 2947,
      "Ġec": 2948,
      "username": 2949,
      "Ġsafety": 2950,
      "Ġstay": 2951,
      "Ġcaused": 2952,
      "ĊĠĠĠĠĠĠĠĠĠĠĠĠĠĠĠĠĠĠĠĠĠĠĠĠ": 2953,
      "Pro": 2954,
      "Ġnormal": 2955,
      "Ġdaily": 2956,
      "inally": 2957,
      "ached": 2958,
      "ĠLet": 2959,
      "oor": 2960,
      "size": 2961,
      "ologies": 2962,
      "Ġappropri": 2963,
      "Ġwond": 2964,
      "Ġwrite": 2965,
      "Ġnumbers": 2966,
      "Ġgetting": 2967,
      "ades": 2968,
      "Ġgrowing": 2969,
      "reci": 2970,
      "ls": 2971,
      "Ġinside": 2972,
      "Ġhumans": 2973,
      "ĠCar": 2974,
      "rought": 2975,
      "Ġsix": 2976,
      "dd": 2977,
      "Ġincludes": 2978,
      "Ġimportance": 2979,
      "amb": 2980,
      "Ġcauses": 2981,
      "ufact": 2982,
      "Ġpolicy": 2983,
      "ged": 2984,
      "Ġsmo": 2985,
      "Ġ>": 2986,
      "Ġbasic": 2987,
      "Ġanswer": 2988,
      "ĠUs": 2989,
      "Ġleaders": 2990,
      "Ġsafe": 2991,
      "Ġinnov": 2992,
      "ĠNe": 2993,
      "Ġcomplete": 2994,
      "ĠUnder": 2995,
      "chol": 2996,
      "Ġaccur": 2997,
      "Ġreve": 2998,
      "Ġinsp": 2999,
      "ĠPre": 3000,
      "Ġsustain": 3001,
      "word": 3002,
      "Ġprimary": 3003,
      "Ġfeatures": 3004,
      "Ġprep": 3005,
      "bol": 3006,
      "Ġinput": 3007,
      "Ġlate": 3008,
      "Ġ--": 3009,
      "ED": 3010,
      "amples": 3011,
      "Ġlooking": 3012,
      "Ġpage": 3013,
      "Ġwebs": 3014,
      "Ġtalk": 3015,
      "Ġefforts": 3016,
      "ĠPer": 3017,
      "Ġexact": 3018,
      "umb": 3019,
      "IC": 3020,
      "ken": 3021,
      "uth": 3022,
      "ttps": 3023,
      "Ġtax": 3024,
      "Ġachieve": 3025,
      "ament": 3026,
      "ĠMany": 3027,
      "ials": 3028,
      "duc": 3029,
      "pes": 3030,
      "Ġsqu": 3031,
      "fort": 3032,
      "resh": 3033,
      "Ġshap": 3034,
      "Ġguid": 3035,
      "Ġopportunities": 3036,
      "Ġscre": 3037,
      "Up": 3038,
      "Ġthinking": 3039,
      "Ġshape": 3040,
      "tings": 3041,
      "cles": 3042,
      "Ġoverall": 3043,
      "Ġdiv": 3044,
      "Ġinvestig": 3045,
      "Ġindepend": 3046,
      "atively": 3047,
      "Ġvisit": 3048,
      "Ġaverage": 3049,
      "Ġcross": 3050,
      "Ġstru": 3051,
      "ĠFl": 3052,
      "Ġcompared": 3053,
      "Ġvalu": 3054,
      "Ġdamage": 3055,
      "ĠSchool": 3056,
      "Ġshown": 3057,
      "Ġcamp": 3058,
      "Ġearl": 3059,
      "'ll": 3060,
      "Ġappl": 3061,
      "Ġdecision": 3062,
      "haps": 3063,
      "Ġcit": 3064,
      "www": 3065,
      "room": 3066,
      "erson": 3067,
      "Ġstrategies": 3068,
      "ĠQu": 3069,
      "Ġbeyond": 3070,
      "rench": 3071,
      "ounds": 3072,
      "Ġrequires": 3073,
      "itude": 3074,
      "Ġforce": 3075,
      "Ġbacter": 3076,
      "Ġpatterns": 3077,
      "Ġprocesses": 3078,
      "Ġrout": 3079,
      "Ġwid": 3080,
      "Ġkids": 3081,
      "Ġnetwork": 3082,
      "Ġpoll": 3083,
      "Ġful": 3084,
      "ĠJapan": 3085,
      "Ġseries": 3086,
      "By": 3087,
      "gar": 3088,
      "ĠIndia": 3089,
      "term": 3090,
      "Ġwarm": 3091,
      "Ġlo": 3092,
      "Ġbill": 3093,
      "ederal": 3094,
      "ously": 3095,
      "Ġlack": 3096,
      "Ġscientific": 3097,
      "resp": 3098,
      "Ġelectric": 3099,
      "Ġquite": 3100,
      "uments": 3101,
      "Ġtown": 3102,
      "Ġearth": 3103,
      "Ġmagn": 3104,
      "Ġprobably": 3105,
      "ĠSim": 3106,
      "log": 3107,
      "Ġtheory": 3108,
      "ciples": 3109,
      "Ġattempt": 3110,
      "Ġfoods": 3111,
      "Ġquickly": 3112,
      "Ġinternational": 3113,
      "Ġcover": 3114,
      "pper": 3115,
      "Ġrequest": 3116,
      "Ġeverything": 3117,
      "Ġcarbon": 3118,
      "rated": 3119,
      "Ġcollab": 3120,
      "ĠThrough": 3121,
      "Ġcool": 3122,
      "Ġpack": 3123,
      "Ġoutput": 3124,
      "Ġinform": 3125,
      "inct": 3126,
      "ST": 3127,
      "ĠDes": 3128,
      "ream": 3129,
      "asons": 3130,
      "aly": 3131,
      "Ġcolon": 3132,
      "Ġgame": 3133,
      "Ġeat": 3134,
      "met": 3135,
      "čĊĠĠĠ": 3136,
      "append": 3137,
      "cret": 3138,
      "hens": 3139,
      "Ġdocument": 3140,
      "abet": 3141,
      "Ġpredict": 3142,
      "more": 3143,
      "AC": 3144,
      "Ġvisual": 3145,
      "Ġprec": 3146,
      "oday": 3147,
      "Ġappreci": 3148,
      "Ġtri": 3149,
      "Ġforest": 3150,
      "isms": 3151,
      "Ġeasily": 3152,
      "rie": 3153,
      "point": 3154,
      "ĠRet": 3155,
      "Ġago": 3156,
      "vention": 3157,
      "Ġpatient": 3158,
      "Ġbase": 3159,
      "iency": 3160,
      "Ġanimal": 3161,
      "lease": 3162,
      "Ġnight": 3163,
      "ellow": 3164,
      "Ġlif": 3165,
      "iring": 3166,
      "Ġhost": 3167,
      "Ġfamilies": 3168,
      "Ġperspect": 3169,
      "Ġir": 3170,
      "Ġadditional": 3171,
      "Ġvaluable": 3172,
      "illi": 3173,
      "Ġsect": 3174,
      "Ġvariety": 3175,
      "Ġteachers": 3176,
      "idge": 3177,
      "Ġgenerally": 3178,
      "Ġsearch": 3179,
      "Ġwood": 3180,
      "Ġcivil": 3181,
      "Ġdigital": 3182,
      "Ġpoor": 3183,
      "Ġgain": 3184,
      "Ġcou": 3185,
      "Ġveget": 3186,
      "Ġtree": 3187,
      "ilos": 3188,
      "just": 3189,
      "oles": 3190,
      "ĠScience": 3191,
      "ĠReg": 3192,
      "Ġdifference": 3193,
      "erate": 3194,
      "Ġacadem": 3195,
      "ceed": 3196,
      "Ġsoftware": 3197,
      "alking": 3198,
      "Ġserious": 3199,
      "Ġinfluence": 3200,
      "Ġancient": 3201,
      "Ġcrucial": 3202,
      "ĠAustral": 3203,
      "Ġlines": 3204,
      "uge": 3205,
      "AL": 3206,
      "Ġbecomes": 3207,
      "Ġdou": 3208,
      "ession": 3209,
      "vert": 3210,
      "mission": 3211,
      "Ġactive": 3212,
      "Ġreported": 3213,
      "ĠCO": 3214,
      "izes": 3215,
      "Ġfinancial": 3216,
      "Ġmanufact": 3217,
      "igen": 3218,
      "lim": 3219,
      "inks": 3220,
      "value": 3221,
      "\"]": 3222,
      "Ġsituation": 3223,
      "itch": 3224,
      "uild": 3225,
      "osing": 3226,
      "Ġlarger": 3227,
      "ĠMin": 3228,
      "Ġteaching": 3229,
      "Ġfit": 3230,
      "ana": 3231,
      "oud": 3232,
      "encies": 3233,
      "ief": 3234,
      "Ġadded": 3235,
      "ĠArt": 3236,
      "odes": 3237,
      "ĠPres": 3238,
      "ynam": 3239,
      "Ġoptim": 3240,
      "Ġbit": 3241,
      "Ġprin": 3242,
      "Ġcompanies": 3243,
      "Ġhyd": 3244,
      "roup": 3245,
      "Ġsection": 3246,
      "Ġisn": 3247,
      "odies": 3248,
      "Ġincluded": 3249,
      "ha": 3250,
      "Ġestablished": 3251,
      "Ġtable": 3252,
      "Ġapplications": 3253,
      "Ġcalcul": 3254,
      "alls": 3255,
      "RE": 3256,
      "itable": 3257,
      "Ġproviding": 3258,
      "bor": 3259,
      "Ġaspects": 3260,
      "ĠKing": 3261,
      "uries": 3262,
      "Ġox": 3263,
      "Ġtend": 3264,
      "Ġimages": 3265,
      "rial": 3266,
      "Ġremains": 3267,
      "Ġsil": 3268,
      "Ġpowerful": 3269,
      "ancy": 3270,
      "wise": 3271,
      "print": 3272,
      "ucle": 3273,
      "ret": 3274,
      "ĠChina": 3275,
      "Ġprior": 3276,
      "IV": 3277,
      "ĠPart": 3278,
      "Ġapplication": 3279,
      "On": 3280,
      "Ġproduced": 3281,
      "Ġfeet": 3282,
      "ulate": 3283,
      "ĠEuropean": 3284,
      "ille": 3285,
      "Ġbur": 3286,
      "Ġspeak": 3287,
      "Ġhands": 3288,
      "Ġfriend": 3289,
      "Ġfost": 3290,
      "ĠComp": 3291,
      "Ġsecurity": 3292,
      "Ġconflic": 3293,
      "ibrary": 3294,
      "ĠTra": 3295,
      "ception": 3296,
      "Ġ,": 3297,
      "mar": 3298,
      "ĊĠĠĠĠĠĠĠĠĠĠĠĠĠĠĠĠĠĠĠĠĠĠĠĠĠĠĠĠĠĠĠĠ": 3299,
      "ĠFrom": 3300,
      "Ġsteps": 3301,
      "Ġhor": 3302,
      "Ġgard": 3303,
      "emporary": 3304,
      "ĠJust": 3305,
      "Ġconcent": 3306,
      "anks": 3307,
      "lands": 3308,
      "Ġbad": 3309,
      "Ġthus": 3310,
      "Ġmention": 3311,
      "phas": 3312,
      "Ġult": 3313,
      "ĠCount": 3314,
      "ĠDo": 3315,
      "Ġep": 3316,
      "Ġtransport": 3317,
      "Ġsoon": 3318,
      "Ġdirectly": 3319,
      "Ġreligious": 3320,
      "cks": 3321,
      "Ġthous": 3322,
      "Ġeye": 3323,
      "Ġquant": 3324,
      "care": 3325,
      "enge": 3326,
      "\"\"\"": 3327,
      "med": 3328,
      "Ġvirus": 3329,
      "Ġspirit": 3330,
      "ĠRuss": 3331,
      "rror": 3332,
      "bit": 3333,
      "Ġsn": 3334,
      "ino": 3335,
      "Ġimmedi": 3336,
      "ĊĠĠĠĠĠĠĠĠĠĠĠĠĠĠĠĠĠĠĠĠĠĠĠ": 3337,
      "itect": 3338,
      "Ġang": 3339,
      "Ġdang": 3340,
      "Ġvideo": 3341,
      "arv": 3342,
      "uff": 3343,
      "requ": 3344,
      "ev": 3345,
      "Ġdetermine": 3346,
      "ran": 3347,
      "Ġestablish": 3348,
      "ĠNot": 3349,
      "Ġappropriate": 3350,
      "ĠÂ": 3351,
      "mat": 3352,
      "ying": 3353,
      "Ċĉ": 3354,
      "Ġrelationships": 3355,
      "Ġast": 3356,
      "Ġbelief": 3357,
      "Ġresponsible": 3358,
      "Ġprojects": 3359,
      "ĠPol": 3360,
      "ĠMy": 3361,
      "Ġoffers": 3362,
      "Ġgot": 3363,
      "ience": 3364,
      "Ġnamed": 3365,
      "Ġfasc": 3366,
      "Ġestim": 3367,
      "Ġwaste": 3368,
      "Ġdiseases": 3369,
      "Ġgradu": 3370,
      "Ġconvers": 3371,
      "Ġrules": 3372,
      "Ġplaces": 3373,
      "Ġfoot": 3374,
      "Ġcele": 3375,
      "ifically": 3376,
      "Ġexpos": 3377,
      "Ġos": 3378,
      "Ġmother": 3379,
      "Ġhot": 3380,
      "Ġdevices": 3381,
      "Ġpropos": 3382,
      "Ġbab": 3383,
      "Ġdiverse": 3384,
      "Ġmilitary": 3385,
      "Ġrefer": 3386,
      "Ġagree": 3387,
      "Ġexercise": 3388,
      "ĠDis": 3389,
      "Ġproced": 3390,
      "assert": 3391,
      "Ġincorpor": 3392,
      "Ġexpected": 3393,
      "Ġ@": 3394,
      "ĠEd": 3395,
      "Ġtrying": 3396,
      "Ġinstall": 3397,
      "Ġroad": 3398,
      "Ġsus": 3399,
      "Ġrates": 3400,
      "Ġobjects": 3401,
      "Ġcomplet": 3402,
      "Ġfinal": 3403,
      "hors": 3404,
      "orders": 3405,
      "Ġcred": 3406,
      "Ġdecre": 3407,
      "Ġheld": 3408,
      "inated": 3409,
      "Ġnav": 3410,
      "dict": 3411,
      "Ġmix": 3412,
      "Ġasked": 3413,
      "Ġattack": 3414,
      "Ġexploring": 3415,
      "Ġoptions": 3416,
      "Ġtrees": 3417,
      "Ġinterpre": 3418,
      "Ġseems": 3419,
      "ecause": 3420,
      "Ġcard": 3421,
      "illing": 3422,
      "Ġund": 3423,
      "Ġsuccessful": 3424,
      "Ġlegal": 3425,
      "Ġsea": 3426,
      "Ġstrugg": 3427,
      "Ġrich": 3428,
      "ĠEduc": 3429,
      "off": 3430,
      "Ġtypically": 3431,
      "ĠFrench": 3432,
      "Ġfront": 3433,
      "Ġmis": 3434,
      "Ġlimited": 3435,
      "hemat": 3436,
      "comp": 3437,
      "ET": 3438,
      "Ġcomponents": 3439,
      "iful": 3440,
      "ĠGl": 3441,
      "Ġnation": 3442,
      "ding": 3443,
      "Ġjourney": 3444,
      "Ġinvolves": 3445,
      "Ġpurpose": 3446,
      "used": 3447,
      "writ": 3448,
      "Ġwhose": 3449,
      "ĠCour": 3450,
      "Ġvacc": 3451,
      "Ġhighly": 3452,
      "Ġrob": 3453,
      "ellig": 3454,
      "Ġbreat": 3455,
      "Ġfavor": 3456,
      "Ġjud": 3457,
      "rong": 3458,
      "Ġsold": 3459,
      "life": 3460,
      "Res": 3461,
      "inst": 3462,
      "inate": 3463,
      "Ġthird": 3464,
      "Ġuseful": 3465,
      "Ġcentral": 3466,
      "Ġraise": 3467,
      "Ġperfect": 3468,
      "dir": 3469,
      "Ġreach": 3470,
      "istry": 3471,
      "Ġtherefore": 3472,
      "At": 3473,
      "Ġstri": 3474,
      "Ġclin": 3475,
      "Ġdevice": 3476,
      "format": 3477,
      "Ġobtain": 3478,
      "ĠJu": 3479,
      "Ġexamples": 3480,
      "iles": 3481,
      "None": 3482,
      "ĠAlthough": 3483,
      "oming": 3484,
      "Ġlearned": 3485,
      "ĠAfrican": 3486,
      "Ġminutes": 3487,
      "ĠHer": 3488,
      "oat": 3489,
      "uman": 3490,
      "Ġgoal": 3491,
      "df": 3492,
      "ipment": 3493,
      "param": 3494,
      "atform": 3495,
      "Ġlabor": 3496,
      "Ġeyes": 3497,
      "Ġdry": 3498,
      "Ġcosts": 3499,
      "Ġmemory": 3500,
      "Ġproperty": 3501,
      "Ġcontinu": 3502,
      "ĠMod": 3503,
      "eks": 3504,
      "Error": 3505,
      "Ġfair": 3506,
      "Ġvit": 3507,
      "ĠFirst": 3508,
      "Ġload": 3509,
      "water": 3510,
      "ĠSm": 3511,
      "Step": 3512,
      "ĠOf": 3513,
      "Ġwent": 3514,
      "Ġtransform": 3515,
      "Ġdemand": 3516,
      "========": 3517,
      "ĠAfrica": 3518,
      "Ġlength": 3519,
      "change": 3520,
      "overy": 3521,
      "Section": 3522,
      "Ġsevere": 3523,
      "Ġnegative": 3524,
      "Ġchoose": 3525,
      "rap": 3526,
      "Ġcommunic": 3527,
      "And": 3528,
      "ĠMost": 3529,
      "ĠIndian": 3530,
      "Ġmonth": 3531,
      "Ġchapter": 3532,
      "asks": 3533,
      "Ġanything": 3534,
      "Ġrespond": 3535,
      "ĠAc": 3536,
      "attle": 3537,
      "Ġfast": 3538,
      "Ġrapid": 3539,
      "ashing": 3540,
      "cape": 3541,
      "Ġprotection": 3542,
      "'ve": 3543,
      "Ġprofessional": 3544,
      "iot": 3545,
      "na": 3546,
      "Ġspeed": 3547,
      "Ġsequ": 3548,
      "useum": 3549,
      "ĠOther": 3550,
      "Ġalthough": 3551,
      "urg": 3552,
      "Ġparam": 3553,
      "ĠChristian": 3554,
      "Ġcateg": 3555,
      "Ġexplain": 3556,
      "Ġpan": 3557,
      "Ċĉĉ": 3558,
      "Ġstatus": 3559,
      "Ġvia": 3560,
      "Ġfa": 3561,
      "Ġnovel": 3562,
      "lation": 3563,
      "Ġsolution": 3564,
      "cean": 3565,
      "ml": 3566,
      "ĠJan": 3567,
      "Ġfight": 3568,
      "ĠNow": 3569,
      "Ġmount": 3570,
      "Ġsignificantly": 3571,
      "ocks": 3572,
      "Ġsymbol": 3573,
      "fficient": 3574,
      "Ġcapital": 3575,
      "ech": 3576,
      "Ġsupply": 3577,
      "Ġcontribute": 3578,
      "ĠRem": 3579,
      "Ġcam": 3580,
      "Ġdifferences": 3581,
      "Ġcapac": 3582,
      "Ġbehavi": 3583,
      "Ġregarding": 3584,
      "undred": 3585,
      "Ġversion": 3586,
      "ager": 3587,
      "Ġcommand": 3588,
      "Ġroom": 3589,
      "Ġlost": 3590,
      "comment": 3591,
      "oe": 3592,
      "Ġcontains": 3593,
      "ĠTechn": 3594,
      "state": 3595,
      "ĠVal": 3596,
      "Ġhabit": 3597,
      "Ġadults": 3598,
      "Ġwide": 3599,
      "Ġshared": 3600,
      "Ġautom": 3601,
      "Ġadvant": 3602,
      "Cl": 3603,
      "iny": 3604,
      "Ġdark": 3605,
      "ĠMus": 3606,
      "Ġbound": 3607,
      "Ġblock": 3608,
      "ius": 3609,
      "year": 3610,
      "Ġconsequ": 3611,
      "Ġcitiz": 3612,
      "rition": 3613,
      "roduction": 3614,
      "omet": 3615,
      "Ġbeginning": 3616,
      "uk": 3617,
      "Ġprinciples": 3618,
      "uary": 3619,
      "Ġworkers": 3620,
      "Ġbrought": 3621,
      "Ġhttp": 3622,
      "Ġing": 3623,
      "Ġemphas": 3624,
      "Ġencourag": 3625,
      "Ġstructures": 3626,
      "ĠAug": 3627,
      "ĠJes": 3628,
      "Ġusers": 3629,
      "Ġbalance": 3630,
      "Ġcarry": 3631,
      "Ġstage": 3632,
      "Ġdim": 3633,
      "Ġtrust": 3634,
      "ĠTrue": 3635,
      "ĠOver": 3636,
      "cious": 3637,
      "iter": 3638,
      "Ġveh": 3639,
      "____": 3640,
      "wide": 3641,
      "Ġtests": 3642,
      "Ġactions": 3643,
      "ĠCenter": 3644,
      "Ġseason": 3645,
      "Ġprivate": 3646,
      "Ġexec": 3647,
      "Ġdoctor": 3648,
      "erences": 3649,
      "ĠGree": 3650,
      "Ġsec": 3651,
      "sect": 3652,
      "iers": 3653,
      "Ġforces": 3654,
      "Ġappe": 3655,
      "Ġreceived": 3656,
      "Ġliterature": 3657,
      "Ġdiscovered": 3658,
      "with": 3659,
      "iforn": 3660,
      "Ġnews": 3661,
      "gn": 3662,
      "acters": 3663,
      "Ġagricult": 3664,
      "Ġaccom": 3665,
      "Ġmag": 3666,
      "osition": 3667,
      "Ġtim": 3668,
      "Ġneigh": 3669,
      "Ġgraph": 3670,
      "oting": 3671,
      "Ġacid": 3672,
      "Ġlimit": 3673,
      "Ġdefin": 3674,
      "Ġcontinued": 3675,
      "idents": 3676,
      "Ġprotein": 3677,
      "Ġhon": 3678,
      "Ġadminist": 3679,
      "Ġsaw": 3680,
      "He": 3681,
      "unction": 3682,
      "Ġdidn": 3683,
      "Ġinteresting": 3684,
      "Ġearlier": 3685,
      "ios": 3686,
      "Ġbirth": 3687,
      "Ġdate": 3688,
      "ĠWest": 3689,
      "Ġder": 3690,
      "Ġfunctions": 3691,
      "ĠMon": 3692,
      "Ġsolar": 3693,
      "Ġdiscover": 3694,
      "Ġlocation": 3695,
      "Ġfear": 3696,
      "ĠGerman": 3697,
      "ĠOur": 3698,
      "ocol": 3699,
      "EC": 3700,
      "ĠTw": 3701,
      "Ġvirt": 3702,
      "Ġforward": 3703,
      "unch": 3704,
      "Ġfields": 3705,
      "Un": 3706,
      "Ġlaws": 3707,
      "udd": 3708,
      "EM": 3709,
      "Ġreasons": 3710,
      "Ġleaves": 3711,
      "Ġcenter": 3712,
      "ĠII": 3713,
      "Ġmessage": 3714,
      "abetes": 3715,
      "Ġinfection": 3716,
      "ĠĊ": 3717,
      "zz": 3718,
      "efore": 3719,
      "Ġorganizations": 3720,
      "estic": 3721,
      "Ġcra": 3722,
      "Ġitems": 3723,
      "Ġbenefit": 3724,
      "```": 3725,
      "ĠHere": 3726,
      "Ġteach": 3727,
      "Ġtesting": 3728,
      "ternal": 3729,
      "Ġrecommend": 3730,
      "aught": 3731,
      "Ġmole": 3732,
      "Re": 3733,
      "():": 3734,
      "Ġtrade": 3735,
      "Ġmeasures": 3736,
      "Ġweeks": 3737,
      "start": 3738,
      "omy": 3739,
      "ky": 3740,
      "Ġemp": 3741,
      "ĠEven": 3742,
      "Ġteacher": 3743,
      "ifornia": 3744,
      "Ġbra": 3745,
      "Ġmachine": 3746,
      "Ġcompre": 3747,
      "Ġvo": 3748,
      "Ġdepend": 3749,
      "Com": 3750,
      "Ġtherapy": 3751,
      "Ġroot": 3752,
      "Ġresource": 3753,
      "Ġconstruct": 3754,
      "aid": 3755,
      "ĠGreat": 3756,
      "###": 3757,
      "Ġefficient": 3758,
      "abilities": 3759,
      "ĠHistory": 3760,
      "ser": 3761,
      "__(": 3762,
      "Ġwon": 3763,
      "Ġsmaller": 3764,
      "ĠDevelop": 3765,
      "Ġprop": 3766,
      "book": 3767,
      "ĠEach": 3768,
      "arian": 3769,
      "Ġcontroll": 3770,
      "votes": 3771,
      "Ġten": 3772,
      "ula": 3773,
      "ĠInstitute": 3774,
      "Ġchallenge": 3775,
      "ĠChild": 3776,
      "Ġapply": 3777,
      "ĠAnt": 3778,
      "ought": 3779,
      "Ar": 3780,
      "plit": 3781,
      "pril": 3782,
      "Ġtold": 3783,
      "Ġcopy": 3784,
      "Ġegg": 3785,
      "Ġshall": 3786,
      "Ġopportunity": 3787,
      "Ġillust": 3788,
      "ditionally": 3789,
      "ĠTrans": 3790,
      "Ġinitial": 3791,
      "ira": 3792,
      "ony": 3793,
      "Ġessay": 3794,
      "Ġdeal": 3795,
      "Ġreceive": 3796,
      "config": 3797,
      "Ġdynam": 3798,
      "ancing": 3799,
      "Ġpiece": 3800,
      "Ġeating": 3801,
      "rote": 3802,
      "Ġauthors": 3803,
      "bre": 3804,
      "ĊĠ": 3805,
      "que": 3806,
      "Ġlocated": 3807,
      "Ġvict": 3808,
      "Ġserve": 3809,
      "Ġphilos": 3810,
      "Ġthr": 3811,
      "Ġassign": 3812,
      "Ġequipment": 3813,
      "Ġ\\": 3814,
      "Ġdegree": 3815,
      "''": 3816,
      "Ġwebsite": 3817,
      "ĠInternational": 3818,
      "Upvotes": 3819,
      "ĠDepartment": 3820,
      "atur": 3821,
      "Ġhundred": 3822,
      "apers": 3823,
      "Ġnumerous": 3824,
      "With": 3825,
      "Ġhope": 3826,
      "Ġutil": 3827,
      "ĠCommun": 3828,
      "ĠSystem": 3829,
      "ournal": 3830,
      "max": 3831,
      "Ġexisting": 3832,
      "Ġdisplay": 3833,
      "Ġnames": 3834,
      "coh": 3835,
      "Ġconstant": 3836,
      "ĠSw": 3837,
      "irection": 3838,
      "âĢ¢": 3839,
      "Ġax": 3840,
      "Ġdetails": 3841,
      "Ġrepl": 3842,
      "outhern": 3843,
      "Ġjournal": 3844,
      "ingu": 3845,
      "################": 3846,
      "Ġmoment": 3847,
      "airs": 3848,
      "Ġproperties": 3849,
      "Ġconcepts": 3850,
      "Ġiniti": 3851,
      "gram": 3852,
      "ulated": 3853,
      "Ġcollection": 3854,
      "ĠTheir": 3855,
      "Ġtask": 3856,
      "ĠOct": 3857,
      "Ġlen": 3858,
      "inese": 3859,
      "Ġsolutions": 3860,
      "Ġrare": 3861,
      "ĠLear": 3862,
      "Ġconcerns": 3863,
      "known": 3864,
      "Ġfeature": 3865,
      "Ġarchitect": 3866,
      "Ġeffort": 3867,
      "ĠServ": 3868,
      "Ġexactly": 3869,
      "Ġcharacters": 3870,
      "Ġalg": 3871,
      "AP": 3872,
      "Ġdescribed": 3873,
      "urt": 3874,
      "ĠThen": 3875,
      "Ġexpand": 3876,
      "Ġweb": 3877,
      "Ġnothing": 3878,
      "Ġsites": 3879,
      "eper": 3880,
      "rogen": 3881,
      "ocr": 3882,
      "ensity": 3883,
      "Ġdecisions": 3884,
      "Ġexposure": 3885,
      "ĠJesus": 3886,
      "Ġscen": 3887,
      "index": 3888,
      "ĠCalifornia": 3889,
      "Ġconnection": 3890,
      "Ġmiddle": 3891,
      "Ġburn": 3892,
      "Ġbott": 3893,
      "Ġgives": 3894,
      "Ġdead": 3895,
      "Ġnarr": 3896,
      "ĠDuring": 3897,
      "Ġsave": 3898,
      "igenous": 3899,
      "Ġaffected": 3900,
      "Ġconstruction": 3901,
      "These": 3902,
      "ĠMarch": 3903,
      "Ġorganization": 3904,
      "Ġidentity": 3905,
      "ĠEl": 3906,
      "AD": 3907,
      "Ġice": 3908,
      "Ġinstru": 3909,
      "Ġallowing": 3910,
      "RO": 3911,
      "Ġcontemporary": 3912,
      "ĠAmericans": 3913,
      "ĊĠĠĠĠĠ": 3914,
      "Ġnucle": 3915,
      "ests": 3916,
      "Ġallowed": 3917,
      "elines": 3918,
      "usion": 3919,
      "Ġnearly": 3920,
      "Ġmid": 3921,
      "Ġfollowed": 3922,
      "ibly": 3923,
      "ned": 3924,
      "Ġplanet": 3925,
      "Ġacqu": 3926,
      "uration": 3927,
      "Ġrecently": 3928,
      "ĠWell": 3929,
      "Ġhimself": 3930,
      "Ġmut": 3931,
      "Ġhous": 3932,
      "Ġmaxim": 3933,
      "Ġleave": 3934,
      "Ġgoes": 3935,
      "works": 3936,
      "urb": 3937,
      "Ġrule": 3938,
      "Ġbacteria": 3939,
      "Ġmig": 3940,
      "Ġplatform": 3941,
      "Ġswe": 3942,
      "Ġolder": 3943,
      "orthern": 3944,
      "ME": 3945,
      "Ġplanning": 3946,
      "Ġweather": 3947,
      "Ġguide": 3948,
      "Ġgoals": 3949,
      "ĠRed": 3950,
      "xi": 3951,
      "comes": 3952,
      "Ġbeautiful": 3953,
      "Ġreduced": 3954,
      "ero": 3955,
      "Ġmiss": 3956,
      "Ġded": 3957,
      "orage": 3958,
      "ĠAccording": 3959,
      "pan": 3960,
      "Ġfresh": 3961,
      "Ġconnections": 3962,
      "Ġtechnologies": 3963,
      "Ġscale": 3964,
      "While": 3965,
      "vis": 3966,
      ":**": 3967,
      "itis": 3968,
      "Ġbackground": 3969,
      "ĠHol": 3970,
      "Ġinfect": 3971,
      "Ġhol": 3972,
      "och": 3973,
      "Ġstandards": 3974,
      "Ġpow": 3975,
      "mosp": 3976,
      "Ġfuel": 3977,
      "rees": 3978,
      "ogle": 3979,
      "model": 3980,
      "loc": 3981,
      "Ġsugar": 3982,
      "gy": 3983,
      "Ġheard": 3984,
      "Ġbox": 3985,
      "tes": 3986,
      "Ġfib": 3987,
      "Ġborn": 3988,
      "ilit": 3989,
      "Ġsurrounding": 3990,
      "aled": 3991,
      "ĠRiver": 3992,
      "Ġvalid": 3993,
      "Ġbul": 3994,
      "Ġlargest": 3995,
      "ĠEngland": 3996,
      "Ġstyle": 3997,
      "ulum": 3998,
      "Ġnavig": 3999,
      "ogen": 4000,
      "Ġqual": 4001,
      "plications": 4002,
      "Ġdivers": 4003,
      "ĠCanada": 4004,
      "cons": 4005,
      "Ġrelevant": 4006,
      "Ġcore": 4007,
      "ags": 4008,
      "see": 4009,
      "Ġcelebr": 4010,
      "Ġcold": 4011,
      "Ġperhaps": 4012,
      "Ġfascinating": 4013,
      "rael": 4014,
      "Ġhyp": 4015,
      "Ġalone": 4016,
      "Ġden": 4017,
      "Ġsummer": 4018,
      "ĠJune": 4019,
      "ĠFurther": 4020,
      "force": 4021,
      "Ġrock": 4022,
      "ĠInter": 4023,
      "reme": 4024,
      "Ġeffectively": 4025,
      "iliar": 4026,
      "ĠOnce": 4027,
      "Ġmember": 4028,
      "Ġ}": 4029,
      "Ġbasis": 4030,
      "Ġapprox": 4031,
      "Ġconfig": 4032,
      "Ġpeace": 4033,
      "Ġgender": 4034,
      "Ġapplied": 4035,
      "Ġcompletely": 4036,
      "Ġequal": 4037,
      "Int": 4038,
      "rupt": 4039,
      "Ġstra": 4040,
      "Ġdecided": 4041,
      "ĠIS": 4042,
      "ĠSept": 4043,
      "ffect": 4044,
      "edom": 4045,
      "mitted": 4046,
      "Ġelement": 4047,
      "Ġworth": 4048,
      "Ġtou": 4049,
      "aste": 4050,
      "Ġcoast": 4051,
      "Ġdistance": 4052,
      "ĠAugust": 4053,
      "Ġsetting": 4054,
      "can": 4055,
      "ĠKe": 4056,
      "Ġpolicies": 4057,
      "Ġpromote": 4058,
      "ĠAssoci": 4059,
      "Ġdefault": 4060,
      "Ġwrong": 4061,
      "mp": 4062,
      "ĠPress": 4063,
      "Ġcoll": 4064,
      "men": 4065,
      "ros": 4066,
      "Ġpurch": 4067,
      "ounc": 4068,
      "Ġinvolve": 4069,
      "Ġlayer": 4070,
      "atus": 4071,
      "Ġacademic": 4072,
      "Ġdistinct": 4073,
      "Ġprinc": 4074,
      "ara": 4075,
      "ĠUse": 4076,
      "Ġteeth": 4077,
      "Ġcop": 4078,
      "Ġfindings": 4079,
      "Ġpy": 4080,
      "Ġnorth": 4081,
      "ht": 4082,
      "Ġfather": 4083,
      "Ġtru": 4084,
      "--------------------------------": 4085,
      "cipl": 4086,
      "Ġdetect": 4087,
      "iding": 4088,
      "Ġhosp": 4089,
      "Ġfully": 4090,
      "edia": 4091,
      "info": 4092,
      "user": 4093,
      "ĠDav": 4094,
      "Ġrise": 4095,
      "Ġeducational": 4096,
      "ĠChinese": 4097,
      "Ġanti": 4098,
      "ico": 4099,
      "Ġsurg": 4100,
      "era": 4101,
      "Ġcand": 4102,
      "sub": 4103,
      "ĠToday": 4104,
      "CO": 4105,
      "Ġemail": 4106,
      "Ġfix": 4107,
      "Ġrunning": 4108,
      "Ġnote": 4109,
      "Ġfigure": 4110,
      "ĠEducation": 4111,
      "Ġcurrently": 4112,
      "rical": 4113,
      "âĢĿ.": 4114,
      "ĠDay": 4115,
      "conn": 4116,
      "Ġmathemat": 4117,
      "Ġeconomy": 4118,
      "Ġmath": 4119,
      "Ġsigns": 4120,
      "ĠWilli": 4121,
      "Ġemotional": 4122,
      "ees": 4123,
      "ĠApril": 4124,
      "cohol": 4125,
      "Ġwatch": 4126,
      "ica": 4127,
      "Ġrepe": 4128,
      "izer": 4129,
      "lam": 4130,
      "itutions": 4131,
      "Ġson": 4132,
      "Ġinstruct": 4133,
      "hest": 4134,
      "Ġbodies": 4135,
      "Ġimag": 4136,
      "Ġenter": 4137,
      "Ġmoving": 4138,
      "ĠMc": 4139,
      "Ġprofession": 4140,
      "Ġmap": 4141,
      "Ġmob": 4142,
      "Ġrisks": 4143,
      "Ġpet": 4144,
      "Ġgiving": 4145,
      "Ġwanted": 4146,
      "Ġworked": 4147,
      "Ġschol": 4148,
      "Ġoccurs": 4149,
      "Ġwrote": 4150,
      "([": 4151,
      "len": 4152,
      "AM": 4153,
      "aul": 4154,
      "ĠConst": 4155,
      "Ġjoint": 4156,
      "ford": 4157,
      "Ġmiles": 4158,
      "Ġinsights": 4159,
      "Ġcomfort": 4160,
      "Ġlived": 4161,
      "Ġevolution": 4162,
      "Ġmaster": 4163,
      "ĠRead": 4164,
      "ta": 4165,
      "Ġwoman": 4166,
      "Ġcoming": 4167,
      "Ġalternative": 4168,
      "Ġcry": 4169,
      "Ġspecifically": 4170,
      "ION": 4171,
      "Ġassum": 4172,
      "ĠPark": 4173,
      "Ġreality": 4174,
      "Ġord": 4175,
      "hab": 4176,
      "Ġpicture": 4177,
      "ĠFalse": 4178,
      "Ġextrem": 4179,
      "Ġpassed": 4180,
      "idden": 4181,
      "Is": 4182,
      "rab": 4183,
      "ĠAre": 4184,
      "ĠJuly": 4185,
      "Ġfactor": 4186,
      "Ġchoice": 4187,
      "ĠSoci": 4188,
      "Ġlat": 4189,
      "Ġcapacity": 4190,
      "ĠGovern": 4191,
      "IL": 4192,
      "ashington": 4193,
      "pped": 4194,
      "Ġoccup": 4195,
      "rief": 4196,
      "Ġking": 4197,
      "yd": 4198,
      "Ġcities": 4199,
      "ping": 4200,
      "Ġgir": 4201,
      "ĠCur": 4202,
      "Ġsouth": 4203,
      "Ġintellig": 4204,
      "net": 4205,
      "ĠCity": 4206,
      "Ġcompar": 4207,
      "trans": 4208,
      "ĠPat": 4209,
      "EL": 4210,
      "Ġadjust": 4211,
      "Ġfinding": 4212,
      "Ġtrend": 4213,
      "Ġcontract": 4214,
      "run": 4215,
      "Ġphen": 4216,
      "Ġgenetic": 4217,
      "Ġindex": 4218,
      "Ġimagine": 4219,
      "Ġsurpr": 4220,
      "ondon": 4221,
      "ĠChurch": 4222,
      "icip": 4223,
      "craft": 4224,
      "Ġdistribution": 4225,
      "lin": 4226,
      "aur": 4227,
      "ĠPeople": 4228,
      "ĠUnderstanding": 4229,
      "Ġrand": 4230,
      "Ġgold": 4231,
      "ama": 4232,
      "Ġfaith": 4233,
      "Ġtopic": 4234,
      "related": 4235,
      "ename": 4236,
      "Ġassist": 4237,
      "Ġweak": 4238,
      "Let": 4239,
      "Ġcitizens": 4240,
      "bal": 4241,
      "Ġdied": 4242,
      "oses": 4243,
      "Ġsociet": 4244,
      "False": 4245,
      "ĠTest": 4246,
      "Ġchanged": 4247,
      "Ġfamous": 4248,
      "Ġstore": 4249,
      "ĠDon": 4250,
      "Ġfederal": 4251,
      "Ġgames": 4252,
      "**:": 4253,
      "norm": 4254,
      "Ġbirds": 4255,
      "ham": 4256,
      "anging": 4257,
      ");": 4258,
      "wards": 4259,
      "mark": 4260,
      "Ġoperations": 4261,
      "Ġillness": 4262,
      "Ġfemale": 4263,
      "ĠHigh": 4264,
      "board": 4265,
      "ses": 4266,
      "ĠPresident": 4267,
      "elcome": 4268,
      "tical": 4269,
      "ching": 4270,
      "Ġrefers": 4271,
      "ias": 4272,
      "ĠIsrael": 4273,
      "Ġnutri": 4274,
      "ares": 4275,
      "Ġresistance": 4276,
      "Ġactual": 4277,
      "Ġcommonly": 4278,
      "ĠCong": 4279,
      "ĠJournal": 4280,
      "ĠChapter": 4281,
      "array": 4282,
      "Ġhappens": 4283,
      "Ġcommerc": 4284,
      "Ġeasier": 4285,
      "Ġregions": 4286,
      "Ġsexual": 4287,
      "cast": 4288,
      "'.": 4289,
      "ĠBlack": 4290,
      "ĠChar": 4291,
      "Ġrequirements": 4292,
      "enty": 4293,
      "Ġplaced": 4294,
      "Ġbecoming": 4295,
      "Ġdeeper": 4296,
      "orith": 4297,
      "rid": 4298,
      "Ġstrength": 4299,
      "à¤": 4300,
      "Ġatmosp": 4301,
      "Ġformer": 4302,
      "rix": 4303,
      "going": 4304,
      "cember": 4305,
      "Ġexhib": 4306,
      "Ġhelping": 4307,
      "Ġexperiment": 4308,
      "Ġrat": 4309,
      "comm": 4310,
      "ĠSince": 4311,
      "xiety": 4312,
      "Ġpresence": 4313,
      "anish": 4314,
      "Ġsample": 4315,
      "ructure": 4316,
      "Ġhappen": 4317,
      "ifying": 4318,
      "Ġprice": 4319,
      "Ġtrack": 4320,
      "zing": 4321,
      "Ġpregn": 4322,
      "Ġpopulations": 4323,
      "Ġevol": 4324,
      "Ġanyone": 4325,
      "do": 4326,
      "Ġthousands": 4327,
      "Ġexcess": 4328,
      "Ġidentified": 4329,
      "Ġfeeling": 4330,
      "Ġformed": 4331,
      "ĠChe": 4332,
      "Ġmonit": 4333,
      "Ġvital": 4334,
      "Ġstarting": 4335,
      "Ġdrugs": 4336,
      "Ġsem": 4337,
      "Ġunivers": 4338,
      "Ġwinter": 4339,
      "Ġchanging": 4340,
      "Ġvary": 4341,
      "Ġshowed": 4342,
      "Ġurban": 4343,
      "aign": 4344,
      "Ġreducing": 4345,
      "Ġrot": 4346,
      "Ġsharing": 4347,
      "Ġdiabetes": 4348,
      "Ġprepar": 4349,
      "call": 4350,
      "Ġremove": 4351,
      "Ġexpression": 4352,
      "ĠUnion": 4353,
      "Ġfruit": 4354,
      "Ġdefined": 4355,
      "ĠMex": 4356,
      "omb": 4357,
      "ĠLab": 4358,
      "Ġforeign": 4359,
      "Ġcounter": 4360,
      "aters": 4361,
      "Ġopin": 4362,
      "ĠSpec": 4363,
      "Ġgets": 4364,
      "ĠEast": 4365,
      "Ġtopics": 4366,
      "Ġsolid": 4367,
      "Ġlabel": 4368,
      "Ġrandom": 4369,
      "Sh": 4370,
      "dis": 4371,
      "ĠTr": 4372,
      "Ġattract": 4373,
      "eline": 4374,
      "ĠLaw": 4375,
      "Ġdirection": 4376,
      "Ġunf": 4377,
      "Ġadvanced": 4378,
      "Ġhealthcare": 4379,
      "Ġeventually": 4380,
      "Ġtasks": 4381,
      "Ġmal": 4382,
      "ĠVir": 4383,
      "ĠDNA": 4384,
      "field": 4385,
      "Ġletter": 4386,
      "gs": 4387,
      "Ġmouth": 4388,
      "Ġ[]": 4389,
      "ache": 4390,
      "iveness": 4391,
      "ĠCounty": 4392,
      "Se": 4393,
      "etime": 4394,
      "Ġconnected": 4395,
      "Ġcomprehens": 4396,
      "Ġtox": 4397,
      "Ġwa": 4398,
      "gl": 4399,
      "ouncil": 4400,
      "Ġfeelings": 4401,
      "roy": 4402,
      "Ġsituations": 4403,
      "house": 4404,
      "Ġball": 4405,
      "Ġplans": 4406,
      "Ġvill": 4407,
      "Ġadvance": 4408,
      "semb": 4409,
      "ovember": 4410,
      "Ġboard": 4411,
      "Ġfilled": 4412,
      "np": 4413,
      "ĠJewish": 4414,
      "Ġmentioned": 4415,
      "Ġhair": 4416,
      "Ġimmune": 4417,
      "Ġstim": 4418,
      "Ġreaders": 4419,
      "ĠAlso": 4420,
      "Ġready": 4421,
      "Ġresulting": 4422,
      "Ġpen": 4423,
      "Ġunc": 4424,
      "Ġawareness": 4425,
      "Ġconsumption": 4426,
      "iable": 4427,
      "train": 4428,
      "ĠPy": 4429,
      "Ġpartners": 4430,
      "Ġlessons": 4431,
      "Ġhop": 4432,
      "Ġglass": 4433,
      "orb": 4434,
      "Ġdespite": 4435,
      "Ġbond": 4436,
      "lay": 4437,
      "ĠWashington": 4438,
      "Ġcausing": 4439,
      "Ġsort": 4440,
      "ightly": 4441,
      "PA": 4442,
      "Ġpieces": 4443,
      "ĠĠĠĠĠ": 4444,
      "Ġtrain": 4445,
      "Ġconclusion": 4446,
      "Ġseparate": 4447,
      "ĠSeptember": 4448,
      "Some": 4449,
      "ĠJanuary": 4450,
      "ĠOctober": 4451,
      "hips": 4452,
      "Ġign": 4453,
      "ĠAdditionally": 4454,
      "Ġsac": 4455,
      "Ġlib": 4456,
      "cking": 4457,
      "ĠConf": 4458,
      "ĠBi": 4459,
      "However": 4460,
      "Ġblue": 4461,
      "Ġtele": 4462,
      "Ġbed": 4463,
      "Ġplaying": 4464,
      "amental": 4465,
      "encing": 4466,
      "Ġthoughts": 4467,
      "Ġchance": 4468,
      "ĠRoman": 4469,
      "ether": 4470,
      "Ġspect": 4471,
      "Ġexperim": 4472,
      "Ġdial": 4473,
      "atin": 4474,
      "Ġeight": 4475,
      "Ġtechnique": 4476,
      "iest": 4477,
      "Ġpref": 4478,
      "ped": 4479,
      "Ġgarden": 4480,
      "Ġinterpret": 4481,
      "rops": 4482,
      "pected": 4483,
      "Ġbelieved": 4484,
      "Ġapproaches": 4485,
      "Ġexperienced": 4486,
      "ube": 4487,
      "down": 4488,
      "Ġinfl": 4489,
      "ĠAut": 4490,
      "Ġpick": 4491,
      "Ġid": 4492,
      "HE": 4493,
      "Ġvision": 4494,
      "Ġincreases": 4495,
      "ĠDef": 4496,
      "ĠArch": 4497,
      "dat": 4498,
      "ĠBo": 4499,
      "Ġhom": 4500,
      "US": 4501,
      "Ġgave": 4502,
      "Ad": 4503,
      "Ġstaff": 4504,
      "Ġrow": 4505,
      "rant": 4506,
      "Ġexpert": 4507,
      "rick": 4508,
      "Ġdepending": 4509,
      "Ġsustainable": 4510,
      "Ġmanage": 4511,
      "ophy": 4512,
      "Ġmedicine": 4513,
      "Ġerror": 4514,
      "OT": 4515,
      "Ġbaby": 4516,
      "Ġencourage": 4517,
      "All": 4518,
      "Ġ+=": 4519,
      "Ġcultures": 4520,
      "ĠGermany": 4521,
      "rome": 4522,
      "Ġbelong": 4523,
      "Ġcompl": 4524,
      "input": 4525,
      "Ġdivid": 4526,
      "Ġmission": 4527,
      "ĠLondon": 4528,
      "Ġpresented": 4529,
      "Ġoutcomes": 4530,
      "OS": 4531,
      "ĠFeb": 4532,
      "Ġbillion": 4533,
      "Ġnative": 4534,
      "Ġprofessor": 4535,
      "iance": 4536,
      "Ġobserved": 4537,
      "Ġchurch": 4538,
      "Ġcontrast": 4539,
      "Ġfrequently": 4540,
      "Ġappears": 4541,
      "Ġcogn": 4542,
      "Ġrelatively": 4543,
      "ĠRel": 4544,
      "PS": 4545,
      "Ġincome": 4546,
      "Ġclasses": 4547,
      "Ġ{}": 4548,
      "Ġwalk": 4549,
      "raction": 4550,
      "ographic": 4551,
      "arser": 4552,
      "lor": 4553,
      "Ġbusinesses": 4554,
      "Ġengage": 4555,
      "Ġcolumn": 4556,
      "respond": 4557,
      "Ġwonder": 4558,
      "Ġmajority": 4559,
      "orch": 4560,
      "Ġconv": 4561,
      "Ġemissions": 4562,
      "Ġ...": 4563,
      "hand": 4564,
      "fe": 4565,
      "Ġplays": 4566,
      "Ġsuggests": 4567,
      "resents": 4568,
      "Ġtruth": 4569,
      "gra": 4570,
      "Ġbuy": 4571,
      "Ġdiscussion": 4572,
      "Ġhelped": 4573,
      "asion": 4574,
      "Ġlanguages": 4575,
      "ĠProf": 4576,
      "Ġfiles": 4577,
      "alt": 4578,
      "url": 4579,
      "rieved": 4580,
      "Ġonto": 4581,
      "After": 4582,
      "alle": 4583,
      "Ġcircum": 4584,
      "Ġrecords": 4585,
      "Ph": 4586,
      "tered": 4587,
      "Ġadvent": 4588,
      "urance": 4589,
      "Here": 4590,
      "Ġheavy": 4591,
      "Ġfelt": 4592,
      "ris": 4593,
      "Ġreference": 4594,
      "Ġtissue": 4595,
      "ĠThus": 4596,
      "Ġcoord": 4597,
      "Ġsounds": 4598,
      "Ġcreation": 4599,
      "cap": 4600,
      "ressive": 4601,
      "čĊĠĠĠĠĠĠĠĠĠĠĠ": 4602,
      "ĠBar": 4603,
      "Ġprocessing": 4604,
      "antic": 4605,
      "Ġap": 4606,
      "no": 4607,
      "Ġoffice": 4608,
      "orge": 4609,
      "Ġtransfer": 4610,
      "Ġinternal": 4611,
      "hetic": 4612,
      "Ġplastic": 4613,
      "Ġheight": 4614,
      "gypt": 4615,
      "Ġcharacteristics": 4616,
      "ĠAustralia": 4617,
      "ĠCor": 4618,
      "ygen": 4619,
      "flow": 4620,
      "abase": 4621,
      "Ġoption": 4622,
      "ĠSom": 4623,
      "Ġformat": 4624,
      "Ġfert": 4625,
      "Ġriver": 4626,
      "ĠEnvironment": 4627,
      "UT": 4628,
      "Ġimproved": 4629,
      "ĠSur": 4630,
      "Ġreports": 4631,
      "qual": 4632,
      "cular": 4633,
      "Ġincreasingly": 4634,
      "code": 4635,
      "Ġâ": 4636,
      "uit": 4637,
      "level": 4638,
      "count": 4639,
      "Ġprefer": 4640,
      "ĠWestern": 4641,
      "Ġturned": 4642,
      "ĠWater": 4643,
      "annel": 4644,
      "ĠDecember": 4645,
      "arning": 4646,
      "Ġmotiv": 4647,
      "othes": 4648,
      "ĠFrance": 4649,
      "Ġdisorder": 4650,
      "ĠBecause": 4651,
      "Ġliqu": 4652,
      "ĠSan": 4653,
      "Ġimmediately": 4654,
      "Ġsav": 4655,
      "icon": 4656,
      "Ġalcohol": 4657,
      "Ġnotes": 4658,
      "Ġensuring": 4659,
      "ĠGeneral": 4660,
      "Ġdisorders": 4661,
      "Ġmist": 4662,
      "ributed": 4663,
      "ĠUK": 4664,
      "Ġengineering": 4665,
      "Ġmuscle": 4666,
      "action": 4667,
      "Ġclinical": 4668,
      "Ġrepresents": 4669,
      "Ġclassroom": 4670,
      "vision": 4671,
      "Ġmale": 4672,
      "iced": 4673,
      "Ġindustrial": 4674,
      "Ġgene": 4675,
      "rame": 4676,
      "Ġrace": 4677,
      "Ġconflict": 4678,
      "Ġinstitutions": 4679,
      "ded": 4680,
      "ĠSol": 4681,
      "rest": 4682,
      "Ġcolors": 4683,
      "pat": 4684,
      "ĠMedic": 4685,
      "Ġgeneration": 4686,
      "https": 4687,
      "Ġiron": 4688,
      "Ġvul": 4689,
      "Ġalgorith": 4690,
      "des": 4691,
      "Ġdiversity": 4692,
      "Ġanxiety": 4693,
      "Ġinterests": 4694,
      "Ġenhance": 4695,
      "Ġdive": 4696,
      "Ġparticipants": 4697,
      "Ġelif": 4698,
      "ĠHouse": 4699,
      "ĠExpl": 4700,
      "icense": 4701,
      "ĠSociety": 4702,
      "Ġjo": 4703,
      "road": 4704,
      "ilarly": 4705,
      "Ġrelease": 4706,
      "ruary": 4707,
      "Ġcollege": 4708,
      "being": 4709,
      "Ġtransl": 4710,
      "Ġhomes": 4711,
      "ĠData": 4712,
      "Ġcommercial": 4713,
      "Ġtrig": 4714,
      "plot": 4715,
      "ref": 4716,
      "ensions": 4717,
      "Ġmetal": 4718,
      "Ġmaintaining": 4719,
      "Ġantib": 4720,
      "ĠDi": 4721,
      "Ġ->": 4722,
      "Ġapproximately": 4723,
      "osystem": 4724,
      "ologists": 4725,
      "Ġwin": 4726,
      "Ġintroduced": 4727,
      "ING": 4728,
      "rations": 4729,
      "ĠUnit": 4730,
      "ĠAng": 4731,
      "Ġparty": 4732,
      "Ġleads": 4733,
      "Ġelim": 4734,
      "ails": 4735,
      "ĠInstead": 4736,
      "Ġviolence": 4737,
      "Ġreligion": 4738,
      "Ġchallenging": 4739,
      "Ġfacilit": 4740,
      "Ġremov": 4741,
      "Â°": 4742,
      "object": 4743,
      "Ġingred": 4744,
      "ĠNovember": 4745,
      "ixt": 4746,
      "aset": 4747,
      "Ġconsequences": 4748,
      "Ġvast": 4749,
      "azing": 4750,
      "Ġmeeting": 4751,
      "Ġmo": 4752,
      "ishing": 4753,
      "ĠEgypt": 4754,
      "oding": 4755,
      "Ġdecades": 4756,
      "Ġbreast": 4757,
      "ĠSocial": 4758,
      "Ġstorage": 4759,
      "Ġadvoc": 4760,
      "acing": 4761,
      "empl": 4762,
      "Ġclearly": 4763,
      "Ġtemperatures": 4764,
      "Ġjustice": 4765,
      "Ġfreedom": 4766,
      "ĊĊĠĠĠĠĠĠĠĠĠĠĠ": 4767,
      "ords": 4768,
      "icated": 4769,
      "Ġtour": 4770,
      "Ġfilm": 4771,
      "Ġcourt": 4772,
      "uses": 4773,
      "Ġpp": 4774,
      "Ġaren": 4775,
      "Ġhuge": 4776,
      "Ġnutrition": 4777,
      "Ġspeech": 4778,
      "Ġterrit": 4779,
      "eding": 4780,
      "ĠIts": 4781,
      "Ġfocused": 4782,
      "Ġinsect": 4783,
      "Ġunits": 4784,
      "Ġmulti": 4785,
      "Ġpractical": 4786,
      "ĠSee": 4787,
      "Ġmilk": 4788,
      "Ġbuildings": 4789,
      "ĠMoreover": 4790,
      "Ġindependent": 4791,
      "Imagine": 4792,
      "leg": 4793,
      "const": 4794,
      "Ġcareer": 4795,
      "LE": 4796,
      "akers": 4797,
      "Ġengaging": 4798,
      "Ġstrategy": 4799,
      "icial": 4800,
      "Ġemotions": 4801,
      "tee": 4802,
      "Ġpric": 4803,
      "Ġassessment": 4804,
      "UR": 4805,
      "sol": 4806,
      "enth": 4807,
      "ux": 4808,
      "Another": 4809,
      "box": 4810,
      "Ġseek": 4811,
      "Ġbatter": 4812,
      "ortunately": 4813,
      "Ġstatement": 4814,
      "omas": 4815,
      "ĠMat": 4816,
      "?\"": 4817,
      "cript": 4818,
      "Ġreplace": 4819,
      "Type": 4820,
      "gin": 4821,
      "ĠFurthermore": 4822,
      "ĠSch": 4823,
      "Ġexcell": 4824,
      "Ġkeeping": 4825,
      "oma": 4826,
      "ĠRev": 4827,
      "Mod": 4828,
      "zer": 4829,
      "vironments": 4830,
      "Ġdri": 4831,
      "ibilities": 4832,
      "Ġcreative": 4833,
      "Ġcycle": 4834,
      "Ġminor": 4835,
      "Ġstudying": 4836,
      "ĠPublic": 4837,
      "Ġtreated": 4838,
      "erved": 4839,
      "Ġsettings": 4840,
      "ĠOb": 4841,
      "itage": 4842,
      "Ġextremely": 4843,
      "Ġphenomen": 4844,
      "Ġexperts": 4845,
      "ĠAssociation": 4846,
      "shape": 4847,
      "ĠAv": 4848,
      "join": 4849,
      "atically": 4850,
      "Ġcontinues": 4851,
      "aint": 4852,
      "spec": 4853,
      "Ġinterested": 4854,
      "Ġcorrespond": 4855,
      "Ġprimarily": 4856,
      "Ġcook": 4857,
      "Ġconducted": 4858,
      "Ġdepression": 4859,
      "Ġcollabor": 4860,
      "tra": 4861,
      "ctor": 4862,
      "Ġpret": 4863,
      "ĠPal": 4864,
      "mary": 4865,
      "Ġelectricity": 4866,
      "Ġsurvey": 4867,
      "db": 4868,
      "Ġbottom": 4869,
      "Ġstar": 4870,
      "Ġju": 4871,
      "Ġtrou": 4872,
      "ĠPlan": 4873,
      "Ġisol": 4874,
      "Ġhear": 4875,
      "Ġtrib": 4876,
      "ii": 4877,
      "Ġcampaign": 4878,
      "Ġwis": 4879,
      "Ġorganic": 4880,
      "Ġpul": 4881,
      "ĠTherefore": 4882,
      "enses": 4883,
      "Ġflex": 4884,
      "][": 4885,
      "ĠHar": 4886,
      "Ġnotice": 4887,
      "then": 4888,
      "Ġwidely": 4889,
      "Ġefficiency": 4890,
      "Ġcarried": 4891,
      "iverse": 4892,
      "Ġdram": 4893,
      "Ġprepared": 4894,
      "DA": 4895,
      "ĠWhy": 4896,
      "Ġspot": 4897,
      "Why": 4898,
      "gment": 4899,
      "inn": 4900,
      "Ġlegis": 4901,
      "Ġgenerations": 4902,
      "Ġsand": 4903,
      "Ġframew": 4904,
      "Ġgrant": 4905,
      "poses": 4906,
      "Ġbud": 4907,
      "ressed": 4908,
      "ĠDevelopment": 4909,
      "ĠGreen": 4910,
      "Ġsecret": 4911,
      "ĠBra": 4912,
      "ĠWrit": 4913,
      "Ġbone": 4914,
      "rum": 4915,
      "pen": 4916,
      "result": 4917,
      "rep": 4918,
      "Ġhighest": 4919,
      "eria": 4920,
      "Ġspring": 4921,
      "Ġsynt": 4922,
      "Ġwall": 4923,
      "ĠGra": 4924,
      "Ġcombination": 4925,
      "Ġdrive": 4926,
      "Ġpros": 4927,
      "Ġstring": 4928,
      "Ġhousehold": 4929,
      "Ġextract": 4930,
      "ĠJapanese": 4931,
      "Ġfavorite": 4932,
      "da": 4933,
      "ĠAN": 4934,
      "Ġmoved": 4935,
      "Ġartists": 4936,
      "Ġmovements": 4937,
      "Ġinvent": 4938,
      "Ġperspective": 4939,
      "Ġperformed": 4940,
      "inger": 4941,
      "Ġfamiliar": 4942,
      "Ġthick": 4943,
      "Ġplayed": 4944,
      "ĠMor": 4945,
      "lege": 4946,
      "Ġrecommended": 4947,
      "They": 4948,
      "Ġconservation": 4949,
      "ĠFound": 4950,
      "Ġchronic": 4951,
      "output": 4952,
      "Ġoperation": 4953,
      "ĠUN": 4954,
      "Ġspiritual": 4955,
      "Ġsong": 4956,
      "Ġspent": 4957,
      "orial": 4958,
      "Ġfundamental": 4959,
      "Ġgather": 4960,
      "top": 4961,
      "Ġseven": 4962,
      "ĠGreek": 4963,
      "ste": 4964,
      "ologist": 4965,
      "iling": 4966,
      "ĠWilliam": 4967,
      "emic": 4968,
      "Ġworldwide": 4969,
      "oyal": 4970,
      "Ġlibrary": 4971,
      "Ġmeant": 4972,
      "Ġsignal": 4973,
      "Ġresponsibility": 4974,
      "Ġchoices": 4975,
      "Ġsaying": 4976,
      "Ġbeliefs": 4977,
      "Ġenvironments": 4978,
      "Ġfine": 4979,
      "Ġcultiv": 4980,
      "Ġvolume": 4981,
      "ĠRetrieved": 4982,
      "Ġoxygen": 4983,
      "Ġconver": 4984,
      "reed": 4985,
      "Ġvulner": 4986,
      "Ġsuppl": 4987,
      "SA": 4988,
      "Ġple": 4989,
      "Ġadding": 4990,
      "Ġprofessionals": 4991,
      "Ġconsult": 4992,
      "Ġcovered": 4993,
      "ĠMr": 4994,
      "Ġdoub": 4995,
      "ĠHuman": 4996,
      "Ġfailure": 4997,
      "Ġkid": 4998,
      "ĠProgram": 4999,
      "Ġproperly": 5000,
      "osen": 5001,
      "Ġmel": 5002,
      "Ġpoly": 5003,
      "Ġexternal": 5004,
      "process": 5005,
      "Ġuniversity": 5006,
      "Ġremind": 5007,
      "Ġpal": 5008,
      "Ġincred": 5009,
      "Ġdra": 5010,
      "Ġsyn": 5011,
      "igure": 5012,
      "ĠĠĠĠĠĠ": 5013,
      "isation": 5014,
      "Ġlandscape": 5015,
      "sec": 5016,
      "Ġsignificance": 5017,
      "imal": 5018,
      "Ġserved": 5019,
      "cal": 5020,
      "Ġembra": 5021,
      "ĠST": 5022,
      "âĢĿ,": 5023,
      "Ġhappened": 5024,
      "ĠOrgan": 5025,
      "Ġarm": 5026,
      "Ġdegrees": 5027,
      "image": 5028,
      "Ġimpacts": 5029,
      "ocal": 5030,
      "http": 5031,
      "Ġarticles": 5032,
      "Ġitem": 5033,
      "Ġcenturies": 5034,
      "Ġseeds": 5035,
      "oted": 5036,
      "ĠJames": 5037,
      "Ġtitle": 5038,
      "dim": 5039,
      "Ġlesson": 5040,
      "roph": 5041,
      "Ġadvice": 5042,
      "rence": 5043,
      "Ġcast": 5044,
      "Ġexamine": 5045,
      "Ġdogs": 5046,
      "Ġseed": 5047,
      "ĠIslam": 5048,
      "Ġplot": 5049,
      "oke": 5050,
      "Ġgenerate": 5051,
      "oper": 5052,
      "rating": 5053,
      "Ġcarefully": 5054,
      "ingly": 5055,
      "En": 5056,
      "Ġpapers": 5057,
      "dent": 5058,
      "Ġsamples": 5059,
      "Ġupper": 5060,
      "ĠCongress": 5061,
      "Ġorigin": 5062,
      "rics": 5063,
      "ĠUsing": 5064,
      "Ġocean": 5065,
      "Ġagg": 5066,
      "Ġhighlight": 5067,
      "ĠMark": 5068,
      "Ġsmart": 5069,
      "Ġmere": 5070,
      "ĠSpanish": 5071,
      "label": 5072,
      "Ġletters": 5073,
      "icians": 5074,
      "Ġround": 5075,
      "Ġclosely": 5076,
      "Ġcomponent": 5077,
      "Ġscreen": 5078,
      "Ġarray": 5079,
      "Ind": 5080,
      "ĠEvery": 5081,
      "apping": 5082,
      "Ġmer": 5083,
      "Ġsatis": 5084,
      "Ġcontaining": 5085,
      "otal": 5086,
      "Ġfinally": 5087,
      "Ġvolunt": 5088,
      "Ġroll": 5089,
      "Ġfigures": 5090,
      "Ġsend": 5091,
      "Ġwealth": 5092,
      "ĠInternet": 5093,
      "Ġpreviously": 5094,
      "ulf": 5095,
      "ĠFebruary": 5096,
      "ĠAir": 5097,
      "ĠFood": 5098,
      "ĠMary": 5099,
      "za": 5100,
      "Ġpotentially": 5101,
      "Ġimpl": 5102,
      "Ġrul": 5103,
      "othing": 5104,
      "anch": 5105,
      "Ġecosystem": 5106,
      "())": 5107,
      "Ġadop": 5108,
      "Ġamounts": 5109,
      "lines": 5110,
      "'),": 5111,
      "ĠOff": 5112,
      "last": 5113,
      "().": 5114,
      "Ġnetworks": 5115,
      "Ġinflamm": 5116,
      "Ġlooks": 5117,
      "Ġreleased": 5118,
      "ĠSub": 5119,
      "anges": 5120,
      "Cont": 5121,
      "Ġerr": 5122,
      "map": 5123,
      "Ġreferred": 5124,
      "Ġdescribe": 5125,
      "essage": 5126,
      "Data": 5127,
      "Ġinjury": 5128,
      "Ġflood": 5129,
      "rich": 5130,
      "unk": 5131,
      "Ġpurposes": 5132,
      "Col": 5133,
      "((": 5134,
      "RI": 5135,
      "Ġvegetables": 5136,
      "CC": 5137,
      "active": 5138,
      "Ġowners": 5139,
      "ball": 5140,
      "Ġhttps": 5141,
      "Ġdestroy": 5142,
      "Ġconfirm": 5143,
      "pathy": 5144,
      "ĠLa": 5145,
      "Ġaid": 5146,
      "Ġnuclear": 5147,
      "ĠBoth": 5148,
      "ĠMal": 5149,
      "Ġlinked": 5150,
      "ĠLord": 5151,
      "Ġjobs": 5152,
      "ĠVol": 5153,
      "Ġpu": 5154,
      "Ġseeking": 5155,
      "eli": 5156,
      "ollow": 5157,
      "Ġpages": 5158,
      "ĠMich": 5159,
      "estion": 5160,
      "Ġaccurate": 5161,
      "write": 5162,
      "Ġadvantage": 5163,
      "wargs": 5164,
      "Ġpresident": 5165,
      "Ġourselves": 5166,
      "rm": 5167,
      "Ġgod": 5168,
      "Ġtum": 5169,
      "Ġleaving": 5170,
      "Ġradio": 5171,
      "stream": 5172,
      "Ġstraight": 5173,
      "Ġtraditions": 5174,
      "Ġconvent": 5175,
      "Ġmeat": 5176,
      "Ġdangerous": 5177,
      "Ġremoved": 5178,
      "Ġsurgery": 5179,
      "nic": 5180,
      "Ġcapable": 5181,
      "Ġbattle": 5182,
      "Ġestimated": 5183,
      "Ġformation": 5184,
      "Ġongoing": 5185,
      "Ġcredit": 5186,
      "ida": 5187,
      "Ġpromoting": 5188,
      "Ġcomment": 5189,
      "Ġroots": 5190,
      "Ġroles": 5191,
      "Ġexplained": 5192,
      "Ġtail": 5193,
      "ĠChildren": 5194,
      "That": 5195,
      "Ġmaybe": 5196,
      "itness": 5197,
      "bi": 5198,
      "Ġmostly": 5199,
      "Ġradiation": 5200,
      "Ġreb": 5201,
      "Ġenable": 5202,
      "inations": 5203,
      "Ġpossess": 5204,
      "ĠStudents": 5205,
      "Ġpollution": 5206,
      "Ġsou": 5207,
      "Ġsets": 5208,
      ".__": 5209,
      "which": 5210,
      "inent": 5211,
      "From": 5212,
      "Ġrelative": 5213,
      "Ġotherwise": 5214,
      "Ġapart": 5215,
      "ificial": 5216,
      "Ġhorm": 5217,
      "Ġgrade": 5218,
      "Ġsubjects": 5219,
      "Ġpush": 5220,
      "Ġrecognize": 5221,
      "Ġsquare": 5222,
      "rapy": 5223,
      "ĠSy": 5224,
      "Ġvess": 5225,
      "body": 5226,
      "ipped": 5227,
      "Ġguidelines": 5228,
      "CH": 5229,
      "No": 5230,
      "anguage": 5231,
      "Ġvictim": 5232,
      "Ġneuro": 5233,
      "Ġcharg": 5234,
      "ĠEv": 5235,
      "ĠAD": 5236,
      "ĠSupp": 5237,
      "asure": 5238,
      "Ġphase": 5239,
      "[:": 5240,
      "Ġupd": 5241,
      "ĠCollege": 5242,
      "ogue": 5243,
      "ellect": 5244,
      "Ġrevolution": 5245,
      "Ġeggs": 5246,
      "MS": 5247,
      "'m": 5248,
      "Ġrain": 5249,
      "Ġdetermined": 5250,
      "aker": 5251,
      "Ġtal": 5252,
      "Ġsecure": 5253,
      "Ġargument": 5254,
      "ĠAsia": 5255,
      "aughter": 5256,
      "](": 5257,
      "ĠRemember": 5258,
      "ĠDavid": 5259,
      "ĠPhys": 5260,
      "ĠRepublic": 5261,
      "otic": 5262,
      "Ġfaced": 5263,
      "Ġatmosphere": 5264,
      "ĠProject": 5265,
      "ĠFore": 5266,
      "Ġmotor": 5267,
      "roc": 5268,
      "Ġvitamin": 5269,
      "Ġpun": 5270,
      "ij": 5271,
      "ĠWeb": 5272,
      "ypes": 5273,
      "Ġvoice": 5274,
      "ensor": 5275,
      "Ġcombined": 5276,
      "Ġnor": 5277,
      "Ġdefinition": 5278,
      "Ġtreatments": 5279,
      "ĠRef": 5280,
      "arrow": 5281,
      ".;": 5282,
      "Ġfarmers": 5283,
      "Ġgenes": 5284,
      "Ġinfections": 5285,
      "ĠImagine": 5286,
      "uted": 5287,
      "Ġsports": 5288,
      "Ġtechnical": 5289,
      "Ġintelligence": 5290,
      "Ġargs": 5291,
      "Equal": 5292,
      "Ġmonitoring": 5293,
      "ĠMake": 5294,
      "Ġgrand": 5295,
      "cs": 5296,
      "ĠProt": 5297,
      "Ġcircumst": 5298,
      "ĠCouncil": 5299,
      "Ġappreciate": 5300,
      "Ġearn": 5301,
      "Ġsupported": 5302,
      "Ġreaction": 5303,
      "ĠMet": 5304,
      "faces": 5305,
      "hist": 5306,
      "Ġfacts": 5307,
      "Pl": 5308,
      "Ġtaught": 5309,
      "ĠHave": 5310,
      "ĠBel": 5311,
      "ĠTur": 5312,
      "Ġfrequency": 5313,
      "Ġdict": 5314,
      "Many": 5315,
      "Ġannual": 5316,
      "Ġmanufacture": 5317,
      "reet": 5318,
      "riage": 5319,
      "lig": 5320,
      "Ġworry": 5321,
      "Ġinvolving": 5322,
      "iled": 5323,
      "Ġperiods": 5324,
      "ĠAlex": 5325,
      "Ġofficial": 5326,
      "rastructure": 5327,
      "Ġlooked": 5328,
      "riculum": 5329,
      "ĠLife": 5330,
      "Ġfaster": 5331,
      "Ġnoted": 5332,
      "well": 5333,
      "Ġkn": 5334,
      "CT": 5335,
      "Ġbarri": 5336,
      "Ġwhom": 5337,
      "ĠDem": 5338,
      "Ġcollaboration": 5339,
      "Ġoffered": 5340,
      "Ġknew": 5341,
      "ĠCre": 5342,
      "ald": 5343,
      "Ġspend": 5344,
      "First": 5345,
      "zy": 5346,
      "Ġcognitive": 5347,
      "Ġtalking": 5348,
      "hent": 5349,
      "pping": 5350,
      "Ġauthority": 5351,
      "asp": 5352,
      "Ġhour": 5353,
      "Ġultimately": 5354,
      "Ġnations": 5355,
      "Ġhelpful": 5356,
      "Ġrenew": 5357,
      "ndrome": 5358,
      "Ġslightly": 5359,
      "Ġanswers": 5360,
      "Ġplease": 5361,
      "ĠHel": 5362,
      "Ġcharge": 5363,
      "Ġhearing": 5364,
      "lo": 5365,
      "Ġdiscrim": 5366,
      "python": 5367,
      "Ġalign": 5368,
      "Ġshowing": 5369,
      "ĠGeorge": 5370,
      "Ġcompleted": 5371,
      "Ġgrass": 5372,
      "ĠBas": 5373,
      "essor": 5374,
      "Ġkilled": 5375,
      "Ġscholars": 5376,
      "Ġlung": 5377,
      "ĠIsland": 5378,
      "Ġmit": 5379,
      "Ġhit": 5380,
      "icks": 5381,
      "Ġideal": 5382,
      "Ġtiny": 5383,
      "isher": 5384,
      "uilding": 5385,
      "Ġconsid": 5386,
      "Ġexistence": 5387,
      "Ġreached": 5388,
      "ĠMuseum": 5389,
      "Ġstream": 5390,
      "Ġcere": 5391,
      "arp": 5392,
      "ĠHistor": 5393,
      "yles": 5394,
      "ĠOpt": 5395,
      "cell": 5396,
      "ĠClass": 5397,
      "****": 5398,
      "ĠGet": 5399,
      "ns": 5400,
      "ario": 5401,
      "iration": 5402,
      "ĠPort": 5403,
      "uster": 5404,
      "Ġsubstant": 5405,
      "return": 5406,
      "ĠFam": 5407,
      "astern": 5408,
      "OD": 5409,
      "Ġdescription": 5410,
      "Ġvent": 5411,
      "Ġexcellent": 5412,
      "Ġcris": 5413,
      "ycl": 5414,
      "Ã¡": 5415,
      "Ġtruly": 5416,
      "Ġperspectives": 5417,
      "Ġimproving": 5418,
      "ĠAdd": 5419,
      "Ġsalt": 5420,
      "Ġreduction": 5421,
      "sum": 5422,
      "Ġsmooth": 5423,
      "ossible": 5424,
      "Our": 5425,
      "pred": 5426,
      "ĠSet": 5427,
      "Ġmaximum": 5428,
      "Ġtooth": 5429,
      "ĠSun": 5430,
      "AB": 5431,
      "Ġisland": 5432,
      "Ġproposed": 5433,
      "alysis": 5434,
      "lete": 5435,
      "inant": 5436,
      "Ġdie": 5437,
      "making": 5438,
      "iant": 5439,
      "ander": 5440,
      "umber": 5441,
      "Ġtraffic": 5442,
      "Ġknows": 5443,
      "Ġenab": 5444,
      "ĠUp": 5445,
      "ĠPhD": 5446,
      "ĠBudd": 5447,
      "crete": 5448,
      "According": 5449,
      "Ġyield": 5450,
      "Ġexposed": 5451,
      "Ġobvious": 5452,
      "Ġbrief": 5453,
      "Ġkept": 5454,
      "ĠPaul": 5455,
      "Ġglob": 5456,
      "ĠSam": 5457,
      "ĠRober": 5458,
      "ĠHIV": 5459,
      "Ġphone": 5460,
      "Ġbank": 5461,
      "Ġcandid": 5462,
      "wood": 5463,
      "Ġelectrical": 5464,
      "ĠBen": 5465,
      "Ġlayers": 5466,
      "pass": 5467,
      "Field": 5468,
      "Ġparticles": 5469,
      "ĠÐ": 5470,
      "ĠSk": 5471,
      "normal": 5472,
      "Ġinterview": 5473,
      "lib": 5474,
      "ĠSuch": 5475,
      "but": 5476,
      "ĠTex": 5477,
      "Ġchemicals": 5478,
      "Ġkinds": 5479,
      "long": 5480,
      "ested": 5481,
      "Ġsolve": 5482,
      "Ġacknow": 5483,
      "ria": 5484,
      "Ġamazing": 5485,
      "Ġdeliver": 5486,
      "Ġexchange": 5487,
      "ya": 5488,
      "Ġraised": 5489,
      "icit": 5490,
      "Ġparties": 5491,
      "Ġintended": 5492,
      "ĠCath": 5493,
      "fit": 5494,
      "ĠOut": 5495,
      "Ġoperating": 5496,
      "TS": 5497,
      "ĠCult": 5498,
      "Ġsufficient": 5499,
      "Ġdiscipl": 5500,
      "Ġmuscles": 5501,
      "Ġremained": 5502,
      "Ġgoods": 5503,
      "Ġflowers": 5504,
      "ague": 5505,
      "Ġoffering": 5506,
      "More": 5507,
      "Ġcertainly": 5508,
      "ĠMount": 5509,
      "Ġdrawing": 5510,
      "Ġcoal": 5511,
      "Ġfirm": 5512,
      "Ġsche": 5513,
      "ĠArab": 5514,
      "ago": 5515,
      "ĠList": 5516,
      "Ġban": 5517,
      "json": 5518,
      "Have": 5519,
      "ĠGovernment": 5520,
      "Ġindicate": 5521,
      "Ġmotion": 5522,
      "oughly": 5523,
      "coming": 5524,
      "Ġimmig": 5525,
      "gi": 5526,
      "Ġsubsequ": 5527,
      "step": 5528,
      "New": 5529,
      "Ġcomputers": 5530,
      "nes": 5531,
      "Ġextreme": 5532,
      "Ġregional": 5533,
      "Ġselected": 5534,
      "Ġthemes": 5535,
      "Ġgovernments": 5536,
      "Ġmarg": 5537,
      "ĠService": 5538,
      "stract": 5539,
      "Ġraw": 5540,
      "ras": 5541,
      "Ġviews": 5542,
      "Ġregul": 5543,
      "win": 5544,
      "ĠKeep": 5545,
      "tenance": 5546,
      "Ġaffects": 5547,
      "ĠâĢ¦": 5548,
      "ĠÃ": 5549,
      "ĠMiddle": 5550,
      "eer": 5551,
      "Ġdepends": 5552,
      "Ġliquid": 5553,
      "Ġsett": 5554,
      "arsh": 5555,
      "ĠSer": 5556,
      "Ġhyper": 5557,
      "Ġfollows": 5558,
      "ville": 5559,
      "clusive": 5560,
      "Ġdouble": 5561,
      "Ġflat": 5562,
      "ĠJews": 5563,
      "icious": 5564,
      "ĠRich": 5565,
      "inding": 5566,
      "Ġcloser": 5567,
      "ny": 5568,
      "Ġyouth": 5569,
      "'],": 5570,
      "Ġresist": 5571,
      "ado": 5572,
      "ĠCentral": 5573,
      "Ġfruits": 5574,
      "Ġship": 5575,
      "DF": 5576,
      "cers": 5577,
      "Ġregularly": 5578,
      "Key": 5579,
      "Ġfunding": 5580,
      "aturally": 5581,
      "Ġdro": 5582,
      "---": 5583,
      "Ġnutrients": 5584,
      "itors": 5585,
      "(),": 5586,
      "Ġhappy": 5587,
      "what": 5588,
      "Ġappoint": 5589,
      "Ġconclud": 5590,
      "ictionary": 5591,
      "....": 5592,
      "Ġcreates": 5593,
      "Ġinternet": 5594,
      "Ġedge": 5595,
      "Ġfrag": 5596,
      "cest": 5597,
      "Ġreturned": 5598,
      "params": 5599,
      "Ġspaces": 5600,
      "Ġfort": 5601,
      "conomic": 5602,
      "Ġwasn": 5603,
      "Ġtexts": 5604,
      "Ġhandle": 5605,
      "group": 5606,
      "Ġthin": 5607,
      "Ġtips": 5608,
      "ĠPract": 5609,
      "Ġdiscovery": 5610,
      "Ġmort": 5611,
      "rows": 5612,
      "Ġsuggested": 5613,
      "Ġfab": 5614,
      "Ġbird": 5615,
      "Ġrein": 5616,
      "Ġasking": 5617,
      "Ġcert": 5618,
      "Ġkill": 5619,
      "ĠCourt": 5620,
      "roid": 5621,
      "ĠIN": 5622,
      "stood": 5623,
      "acific": 5624,
      "Ġhospital": 5625,
      "Ġnerv": 5626,
      "while": 5627,
      "CE": 5628,
      "den": 5629,
      "Ġmainly": 5630,
      "Ġhidden": 5631,
      "Ġinformed": 5632,
      "UN": 5633,
      "Ġbegins": 5634,
      "Ġinnovative": 5635,
      "Ġdedicated": 5636,
      "eless": 5637,
      "ifies": 5638,
      "ĠDirect": 5639,
      "band": 5640,
      "Ġmedium": 5641,
      "Ġinvestment": 5642,
      "Ġprocedure": 5643,
      "orking": 5644,
      "Ġrapidly": 5645,
      "ĠAI": 5646,
      "ĠMexico": 5647,
      "Ġabuse": 5648,
      "Ġcareful": 5649,
      "Gen": 5650,
      "ĠCivil": 5651,
      "ogether": 5652,
      "nam": 5653,
      "Ġproteins": 5654,
      "Ġtried": 5655,
      "Ġwaters": 5656,
      "Ġforced": 5657,
      "uls": 5658,
      "Ġabsol": 5659,
      "Ġdocuments": 5660,
      "Ġdoll": 5661,
      "onic": 5662,
      "ĠLearning": 5663,
      "ĠÎ": 5664,
      "ĠSecond": 5665,
      "ounced": 5666,
      "parent": 5667,
      "Ġdisapp": 5668,
      "othe": 5669,
      "Ġstorm": 5670,
      "ĠLatin": 5671,
      "plicated": 5672,
      "wid": 5673,
      "ears": 5674,
      "Ġclim": 5675,
      "Ġdiagnosis": 5676,
      "Ġsouthern": 5677,
      "Ġtoxic": 5678,
      "ĠBritain": 5679,
      "valid": 5680,
      "Ġbright": 5681,
      "Ġsupporting": 5682,
      "ĠWhite": 5683,
      "ĠHen": 5684,
      "ĠAtt": 5685,
      "Ġmoist": 5686,
      "Ġcircumstances": 5687,
      "Ġclient": 5688,
      "Ġfluid": 5689,
      "weight": 5690,
      "Ġoccurred": 5691,
      "Ġstone": 5692,
      "Ġbehaviors": 5693,
      "Ġleadership": 5694,
      "Ġprocedures": 5695,
      "post": 5696,
      "Ġprepare": 5697,
      "Äģ": 5698,
      "html": 5699,
      "Ġwindow": 5700,
      "aks": 5701,
      "Ġleader": 5702,
      "Ġstars": 5703,
      "istan": 5704,
      "ifications": 5705,
      "Ġfoundation": 5706,
      "Ġconsistent": 5707,
      "ĠDist": 5708,
      "anged": 5709,
      "Ġmanner": 5710,
      "Ġmillions": 5711,
      "Ġsuitable": 5712,
      "ĠTwo": 5713,
      "rust": 5714,
      "Ġintellect": 5715,
      "Ġsector": 5716,
      "Ġbrother": 5717,
      "ilience": 5718,
      "Ġselection": 5719,
      "Ġpoet": 5720,
      "Ġlies": 5721,
      "ĠNav": 5722,
      "Ġmode": 5723,
      "Ġyellow": 5724,
      "free": 5725,
      "Ġemployees": 5726,
      "Ġpictures": 5727,
      "Ġ!": 5728,
      "Ġstation": 5729,
      "Ġinfrastructure": 5730,
      "ĠMuslim": 5731,
      "Ġloved": 5732,
      "ĠMac": 5733,
      "instance": 5734,
      "doc": 5735,
      "Ġaccompl": 5736,
      "api": 5737,
      "Ġmorning": 5738,
      "ĠNet": 5739,
      "Ġpretty": 5740,
      "Ġera": 5741,
      "herent": 5742,
      "ĠNAS": 5743,
      "ĠSpace": 5744,
      "dden": 5745,
      "sk": 5746,
      "Ġdomestic": 5747,
      "Ġbiological": 5748,
      "Ġingredients": 5749,
      "Ġunderlying": 5750,
      "rec": 5751,
      "Ġexplan": 5752,
      "Ġskill": 5753,
      "Ġdecide": 5754,
      "atever": 5755,
      "Ġvehicle": 5756,
      "Ġjoin": 5757,
      "Ġmatch": 5758,
      "Ġinteractions": 5759,
      "Ġbow": 5760,
      "Ġnorthern": 5761,
      "yp": 5762,
      "ĠOld": 5763,
      "Ġformal": 5764,
      "method": 5765,
      "Ġdu": 5766,
      "Ġsettle": 5767,
      "Ġdrop": 5768,
      "Ġinstrument": 5769,
      "Ġprices": 5770,
      "Ġcollected": 5771,
      "Ġthor": 5772,
      "urity": 5773,
      "Ġpray": 5774,
      "HO": 5775,
      "bed": 5776,
      "Ġwear": 5777,
      "ĠTexas": 5778,
      "lick": 5779,
      "Ġwalls": 5780,
      "ools": 5781,
      "Ġobst": 5782,
      "Ġguidance": 5783,
      "ĠCam": 5784,
      "Ġinstruction": 5785,
      "ĠPost": 5786,
      "osite": 5787,
      "Although": 5788,
      "Ġelev": 5789,
      "Ġdelve": 5790,
      "Ġneighb": 5791,
      "ician": 5792,
      "Ġwet": 5793,
      "Ġharmful": 5794,
      "Ġpersist": 5795,
      "Ġappearance": 5796,
      "Ġrecorded": 5797,
      "Ġvirtual": 5798,
      "berg": 5799,
      "Ġoral": 5800,
      "verty": 5801,
      "gal": 5802,
      "Ġclick": 5803,
      "ĠTechnology": 5804,
      "filename": 5805,
      "Ġsnow": 5806,
      "Ġhaz": 5807,
      "Ġcorpor": 5808,
      "Ġpoverty": 5809,
      "IR": 5810,
      "Ġvariable": 5811,
      "exp": 5812,
      "rolog": 5813,
      "Ġsudden": 5814,
      "Ġextent": 5815,
      "ĠJe": 5816,
      "Ġdatabase": 5817,
      "rian": 5818,
      "IG": 5819,
      "Name": 5820,
      "Us": 5821,
      "Ġremark": 5822,
      "Ġlinks": 5823,
      "nel": 5824,
      "la": 5825,
      "CS": 5826,
      "ĠManagement": 5827,
      "Ġdriving": 5828,
      "ĠInc": 5829,
      "wer": 5830,
      "mas": 5831,
      "Ġfostering": 5832,
      "ĠQue": 5833,
      "Ġfacilities": 5834,
      "ups": 5835,
      "Ġcourses": 5836,
      "ĠGoogle": 5837,
      "Ġresol": 5838,
      "ĠAnother": 5839,
      "Ġfoss": 5840,
      "Ġ('": 5841,
      "Ġmoral": 5842,
      "ĠDesign": 5843,
      "ancer": 5844,
      "Ġdrinking": 5845,
      "Ġwest": 5846,
      "Ġwait": 5847,
      "assertEqual": 5848,
      "Ġdiscussed": 5849,
      "Ġfeedback": 5850,
      "Ġemergency": 5851,
      "uing": 5852,
      "rates": 5853,
      "omic": 5854,
      "Ġtro": 5855,
      "Ġdepth": 5856,
      "Ġsensitive": 5857,
      "Ġstrengthen": 5858,
      "Ġamb": 5859,
      "Ġserves": 5860,
      "Ġdetailed": 5861,
      "Ġblog": 5862,
      "ĠMart": 5863,
      "Ġentirely": 5864,
      "Ġcommunicate": 5865,
      "Ġfilter": 5866,
      "iform": 5867,
      "De": 5868,
      "Ġminimum": 5869,
      "ĠMiss": 5870,
      "Ġcutting": 5871,
      "Ġlisten": 5872,
      "Ġpresc": 5873,
      "ĠThomas": 5874,
      "check": 5875,
      "Ġfill": 5876,
      "ĠStand": 5877,
      "ĠLike": 5878,
      "Ġdefine": 5879,
      "Ġstruggle": 5880,
      "Des": 5881,
      "Ġsides": 5882,
      "ĠInf": 5883,
      "Not": 5884,
      "ĠTime": 5885,
      "Ġinstitution": 5886,
      "Ġintroduction": 5887,
      "Ġrecovery": 5888,
      "osa": 5889,
      "Ġlots": 5890,
      "Ġchain": 5891,
      "ĠSal": 5892,
      "Ġexamining": 5893,
      "Ġmessages": 5894,
      "Ġtouch": 5895,
      "Ġsen": 5896,
      "ĠBible": 5897,
      "Ġagricultural": 5898,
      "ĠBr": 5899,
      "Ġshel": 5900,
      "Ġgirls": 5901,
      "Ġperman": 5902,
      "version": 5903,
      "scale": 5904,
      "ĠPython": 5905,
      "cel": 5906,
      "that": 5907,
      "kes": 5908,
      "Ġstarts": 5909,
      "arant": 5910,
      "Ġshif": 5911,
      "Ġclaims": 5912,
      "Ġhero": 5913,
      "Ġspeaking": 5914,
      "ĠJer": 5915,
      "split": 5916,
      "ĠWork": 5917,
      "Ġcontrolled": 5918,
      "ĠEnergy": 5919,
      "Ġcomprehensive": 5920,
      "Ab": 5921,
      "Ġinnovation": 5922,
      "Ġtypical": 5923,
      "west": 5924,
      "ĠLeg": 5925,
      "Ġattacks": 5926,
      "agon": 5927,
      "Ġresponses": 5928,
      "Ġshaping": 5929,
      "Ġregulations": 5930,
      "string": 5931,
      "Ġlargely": 5932,
      "Ġstages": 5933,
      "Ġenem": 5934,
      "roke": 5935,
      "Ġaudience": 5936,
      "Ġaddressing": 5937,
      "ĠSometimes": 5938,
      "Ġmatters": 5939,
      "Ġpaid": 5940,
      "under": 5941,
      "utive": 5942,
      "ĠBay": 5943,
      "Ġvaccine": 5944,
      "position": 5945,
      "Ġlose": 5946,
      "Ġrural": 5947,
      "Ġsell": 5948,
      "Ġpark": 5949,
      "ĠPsych": 5950,
      "Ġgrown": 5951,
      "ĊĠĠĠĠĠĠĠĠĠĠĠĠĠĠĠĠĠĠĠĠĠĠĠĠĠĠĠ": 5952,
      "ĠKore": 5953,
      "Ġrecognized": 5954,
      "ceived": 5955,
      "Ġconsists": 5956,
      "create": 5957,
      "Ġchosen": 5958,
      "ditional": 5959,
      "ĠCare": 5960,
      "Ġexists": 5961,
      "ĠMedicine": 5962,
      "LA": 5963,
      "lean": 5964,
      "My": 5965,
      "Ġtraum": 5966,
      "ĠPower": 5967,
      "Ġdrink": 5968,
      "Ġliver": 5969,
      "ĠStep": 5970,
      "Ġmechanisms": 5971,
      "Ġsequence": 5972,
      "Ġcm": 5973,
      "IM": 5974,
      "Ġband": 5975,
      "Ġahead": 5976,
      "ensus": 5977,
      "Ġrestrict": 5978,
      "ĠWhe": 5979,
      "icing": 5980,
      "Ġhabitat": 5981,
      "ĠMedical": 5982,
      "ĠEmp": 5983,
      "Ġtorch": 5984,
      "Ġaccepted": 5985,
      "Ġmetab": 5986,
      "Ġintervention": 5987,
      "Ġwants": 5988,
      "Ġcars": 5989,
      "umin": 5990,
      "ĠLou": 5991,
      "Ġtrial": 5992,
      "Ġpolitics": 5993,
      "Ġnode": 5994,
      "Ġagriculture": 5995,
      "Ġancest": 5996,
      "Ġpolice": 5997,
      "ĠRec": 5998,
      "Ġfro": 5999,
      "Ġreprodu": 6000,
      "Ġweap": 6001,
      "Ġ(\"": 6002,
      "arter": 6003,
      "hi": 6004,
      "Ġadequ": 6005,
      "Ġaimed": 6006,
      "Ġassistance": 6007,
      "Ġlatest": 6008,
      "ĠMem": 6009,
      "Ġdiam": 6010,
      "Ġprompt": 6011,
      "ĠDise": 6012,
      "agers": 6013,
      "ĠSen": 6014,
      "ĠSaf": 6015,
      "ĠOF": 6016,
      "Ġcooking": 6017,
      "Ġment": 6018,
      "Ġinteraction": 6019,
      "Ġcrops": 6020,
      "Ġopening": 6021,
      "Ġopinion": 6022,
      "ĠJud": 6023,
      "Ġabsorb": 6024,
      "Ġneut": 6025,
      "Ġsuccessfully": 6026,
      "anes": 6027,
      "Ġsin": 6028,
      "Ġphr": 6029,
      "Ġstudied": 6030,
      "Ġvariables": 6031,
      "Ġfiction": 6032,
      "Ġstret": 6033,
      "Ġdut": 6034,
      "Ġnarratives": 6035,
      "ican": 6036,
      "Ġharv": 6037,
      "ĠWomen": 6038,
      "ĠMil": 6039,
      "Ġknowing": 6040,
      "Ġproport": 6041,
      "ĠFranc": 6042,
      "Ġnit": 6043,
      "Go": 6044,
      "ĠTreat": 6045,
      "Ġstem": 6046,
      "ĠCommon": 6047,
      "Ġscript": 6048,
      "ĠAny": 6049,
      "Ġbudget": 6050,
      "Ġcrisis": 6051,
      "estyle": 6052,
      "Ġwave": 6053,
      "ĠRussia": 6054,
      "oxide": 6055,
      "ava": 6056,
      "ĠVirgin": 6057,
      "gu": 6058,
      "ĠEngine": 6059,
      "expected": 6060,
      "Ġhundreds": 6061,
      "ester": 6062,
      "Ġcatch": 6063,
      "Ġserver": 6064,
      "uous": 6065,
      "Ġdivided": 6066,
      "ĠMicro": 6067,
      "erving": 6068,
      "ĠDec": 6069,
      "raint": 6070,
      "Ġindigenous": 6071,
      "ĠElect": 6072,
      "Ġreform": 6073,
      "Ġadopt": 6074,
      "Ġcouple": 6075,
      "Americ": 6076,
      "Be": 6077,
      "sis": 6078,
      "ĠBer": 6079,
      "Ġtransition": 6080,
      "Ġrelax": 6081,
      "Ġentry": 6082,
      "Ġafford": 6083,
      "ĠIr": 6084,
      "Ġdiscussions": 6085,
      "Ġprotected": 6086,
      "conds": 6087,
      "ĠNASA": 6088,
      "Ġresidents": 6089,
      "Ġmeasured": 6090,
      "rot": 6091,
      "Ġsurvival": 6092,
      "Ġdoctors": 6093,
      "Ġsession": 6094,
      "rat": 6095,
      "Ġapparent": 6096,
      "Ġdownload": 6097,
      "Ġaccounts": 6098,
      "Ġnaturally": 6099,
      "Ġcalls": 6100,
      "Most": 6101,
      "Ġallerg": 6102,
      "ĠRussian": 6103,
      "Ġacts": 6104,
      "node": 6105,
      "List": 6106,
      "Ġneighbor": 6107,
      "itudes": 6108,
      "icate": 6109,
      "Ġvehicles": 6110,
      "host": 6111,
      "Ġcritic": 6112,
      "Ġprinciple": 6113,
      "orous": 6114,
      "Ġpositions": 6115,
      "Ġparameters": 6116,
      "ĠInformation": 6117,
      "Ġsuffering": 6118,
      "perty": 6119,
      "Ġmachines": 6120,
      "Before": 6121,
      "Ġbeauty": 6122,
      "Ġgar": 6123,
      "ĠStudies": 6124,
      "ĠPacific": 6125,
      "ĠAtl": 6126,
      "Ġalt": 6127,
      "Ġuniverse": 6128,
      "racy": 6129,
      "lers": 6130,
      "Ġimplications": 6131,
      "Ġstock": 6132,
      "Ġrepresentation": 6133,
      "chers": 6134,
      "Ġhunt": 6135,
      "Ġaf": 6136,
      "Ġbrand": 6137,
      "Ġmedications": 6138,
      "Ġwalking": 6139,
      "ocratic": 6140,
      "Ġexploration": 6141,
      "Ġtherm": 6142,
      "Ġattend": 6143,
      "Ġreject": 6144,
      "Ġresilience": 6145,
      "Ġshapes": 6146,
      "Ġwaves": 6147,
      "organ": 6148,
      "iate": 6149,
      "{}": 6150,
      "Ġdepartment": 6151,
      "erals": 6152,
      "Ġtun": 6153,
      "Ġnearby": 6154,
      "aud": 6155,
      "agues": 6156,
      "main": 6157,
      "Ġethical": 6158,
      "Ġdistingu": 6159,
      "ÃŃ": 6160,
      "Ġcoff": 6161,
      "Ġconscious": 6162,
      "Ġsimpl": 6163,
      "ĠForm": 6164,
      "Ġtrends": 6165,
      "Ġastron": 6166,
      "NAME": 6167,
      "Ġcreativity": 6168,
      "rants": 6169,
      "Ġmaintenance": 6170,
      "Ġgenerated": 6171,
      "ael": 6172,
      "ĠFe": 6173,
      "Ġintric": 6174,
      "pers": 6175,
      "using": 6176,
      "Ġboundaries": 6177,
      "Ġvisible": 6178,
      "ĠAcadem": 6179,
      "ĠRights": 6180,
      "ĠSimilarly": 6181,
      "Ġunderstood": 6182,
      "Ġsan": 6183,
      "Ġstronger": 6184,
      "Ġshift": 6185,
      "Ġce": 6186,
      "van": 6187,
      "IP": 6188,
      "orrow": 6189,
      "BC": 6190,
      "Ġcardi": 6191,
      "Ġwire": 6192,
      "Ġconcerned": 6193,
      "Ġcurriculum": 6194,
      "Ġbroader": 6195,
      "Ġprevention": 6196,
      "Get": 6197,
      "Ġframe": 6198,
      "Ġwildlife": 6199,
      "Ġtells": 6200,
      "Ġimmun": 6201,
      "erent": 6202,
      "Ġconcentration": 6203,
      "Ġconfidence": 6204,
      "float": 6205,
      "Ġportion": 6206,
      "Ġmassive": 6207,
      "ĠFoundation": 6208,
      "cience": 6209,
      "Ġinner": 6210,
      "Ġframework": 6211,
      "olf": 6212,
      "ENT": 6213,
      "Ġboost": 6214,
      "ascular": 6215,
      "Ġproducing": 6216,
      "Ġsick": 6217,
      "ĠKnow": 6218,
      "Ġremaining": 6219,
      "Ġmobile": 6220,
      "Ġwife": 6221,
      "Ġkil": 6222,
      "Ġhabits": 6223,
      "inet": 6224,
      "ĠBet": 6225,
      "ĠBook": 6226,
      "Ġrig": 6227,
      "Of": 6228,
      "Ġofficials": 6229,
      "Ġimplementation": 6230,
      "ĠNews": 6231,
      "Ġassemb": 6232,
      "Ġgained": 6233,
      "ĠWind": 6234,
      "Ġsubstance": 6235,
      "Ġabilities": 6236,
      "Ġarmy": 6237,
      "Ġobtained": 6238,
      "Ġengagement": 6239,
      "Ġmanaged": 6240,
      "alian": 6241,
      "Ġmanaging": 6242,
      "Ġsweet": 6243,
      "ĠWho": 6244,
      "ums": 6245,
      "ca": 6246,
      "Ġsignals": 6247,
      "Do": 6248,
      "Ġcloud": 6249,
      "Ġgreatest": 6250,
      "Ġeast": 6251,
      "section": 6252,
      "Ġdesired": 6253,
      "Ġappeared": 6254,
      "eal": 6255,
      "Ġprogramming": 6256,
      "mic": 6257,
      "ĠExper": 6258,
      "elled": 6259,
      "Ġnarrow": 6260,
      "Ġswitch": 6261,
      "range": 6262,
      "ĠMass": 6263,
      "Ġnoise": 6264,
      "olicy": 6265,
      "img": 6266,
      "Ġwitness": 6267,
      "Ġseeing": 6268,
      "Ġsed": 6269,
      "annels": 6270,
      "Ġadvis": 6271,
      "ĠPers": 6272,
      "Ġnurs": 6273,
      "Ġfif": 6274,
      "pol": 6275,
      "Ġath": 6276,
      "Ġarchitecture": 6277,
      "ampl": 6278,
      "DE": 6279,
      "Ġexpensive": 6280,
      "Ġimprovement": 6281,
      "Ġoverl": 6282,
      "Ġconventional": 6283,
      "ĠSov": 6284,
      "Ġexplains": 6285,
      "Ġdemonstrate": 6286,
      "ads": 6287,
      "ĠControl": 6288,
      "Ġfloor": 6289,
      "ĠArmy": 6290,
      "Ġreader": 6291,
      "oto": 6292,
      "VID": 6293,
      "Ġcrim": 6294,
      "ansion": 6295,
      "request": 6296,
      "ĠCommission": 6297,
      "Ġdesigns": 6298,
      "bar": 6299,
      "Ġnan": 6300,
      "dev": 6301,
      "Ġdecrease": 6302,
      "Ġrecognition": 6303,
      "Ġpregnancy": 6304,
      "Ġexperiments": 6305,
      "ishes": 6306,
      "During": 6307,
      "Ġfold": 6308,
      "Ġtaste": 6309,
      "Test": 6310,
      "status": 6311,
      "iday": 6312,
      "Ġmanip": 6313,
      "Ġstored": 6314,
      "Ġsuc": 6315,
      "Ġimpossible": 6316,
      "Qu": 6317,
      "Ġelectronic": 6318,
      "Ġmarked": 6319,
      "Ġimper": 6320,
      "aming": 6321,
      "pet": 6322,
      "acts": 6323,
      "Ġpure": 6324,
      "ship": 6325,
      "Ġtested": 6326,
      "pha": 6327,
      "asive": 6328,
      "Ġ]": 6329,
      "Ġsentence": 6330,
      "ĠDisc": 6331,
      "Ġlocations": 6332,
      "Ġsoldiers": 6333,
      "ĠNor": 6334,
      "ka": 6335,
      "Ġsatell": 6336,
      "ipe": 6337,
      "bert": 6338,
      "cium": 6339,
      "Read": 6340,
      "Ġgun": 6341,
      "Ġpig": 6342,
      "Ġinflammation": 6343,
      "Ġfailed": 6344,
      "Ġinjuries": 6345,
      "Ġparalle": 6346,
      "values": 6347,
      "Ġcustomers": 6348,
      "Ġpersons": 6349,
      "Ġmanufacturing": 6350,
      "Ġslowly": 6351,
      "Ġprev": 6352,
      "Bl": 6353,
      "Ġbrown": 6354,
      "cules": 6355,
      "ĠRobert": 6356,
      "ultane": 6357,
      "Ġrail": 6358,
      "ashion": 6359,
      "Ġphilosophy": 6360,
      "Ġconsidering": 6361,
      "ĠTim": 6362,
      "ĉĉĉĉ": 6363,
      "oom": 6364,
      "Ġunless": 6365,
      "Ġfoster": 6366,
      "Ġtransportation": 6367,
      "iosity": 6368,
      "Ġtoler": 6369,
      "Ġclosed": 6370,
      "Ġfacing": 6371,
      "ĠDespite": 6372,
      "cher": 6373,
      "ĠDel": 6374,
      "Ġvs": 6375,
      "Ġsky": 6376,
      "rey": 6377,
      "Ġwestern": 6378,
      "Ġexercises": 6379,
      "ĠConn": 6380,
      "Ġkm": 6381,
      "Ġcapture": 6382,
      "ĠEnvironmental": 6383,
      "ota": 6384,
      "Ġrecip": 6385,
      "ĠProv": 6386,
      "Ġhoriz": 6387,
      "Ġinstructions": 6388,
      "Ġeveryday": 6389,
      "Ġparticipate": 6390,
      "Ġhorse": 6391,
      "Ġindeed": 6392,
      "Ġplayers": 6393,
      "Ġfle": 6394,
      "Ġdefic": 6395,
      "Ġenables": 6396,
      "ĠScient": 6397,
      "ĠVis": 6398,
      "Ġages": 6399,
      "ĠKey": 6400,
      "ato": 6401,
      "Ġpand": 6402,
      "Once": 6403,
      "ĠGroup": 6404,
      "Ġrevealed": 6405,
      "Ġkit": 6406,
      "Me": 6407,
      "Ġplatforms": 6408,
      "BN": 6409,
      "Ġprem": 6410,
      "Ġprison": 6411,
      "Ġexciting": 6412,
      "table": 6413,
      "================": 6414,
      "Ġagreement": 6415,
      "Ġartificial": 6416,
      "Ġtherap": 6417,
      "ĠCourse": 6418,
      "ocab": 6419,
      "Ġstick": 6420,
      "Ġcos": 6421,
      "ĠGood": 6422,
      "ĠSmith": 6423,
      "Ġmac": 6424,
      "ixture": 6425,
      "LO": 6426,
      "ĠSea": 6427,
      "Ġrhy": 6428,
      "Ġcrop": 6429,
      "otion": 6430,
      "Ġremote": 6431,
      "urd": 6432,
      "ifier": 6433,
      "Ġshop": 6434,
      "Ġderived": 6435,
      "ĠDiv": 6436,
      "Ġdental": 6437,
      "lements": 6438,
      "Ġinches": 6439,
      "ĠDet": 6440,
      "pack": 6441,
      "Ġsecondary": 6442,
      "Ġstands": 6443,
      "ML": 6444,
      "Ġcompetition": 6445,
      "ango": 6446,
      "ĠNature": 6447,
      "Ġtit": 6448,
      "dule": 6449,
      "Ġfixed": 6450,
      "Ġpil": 6451,
      "ĠIdent": 6452,
      "kwargs": 6453,
      "Ġagreed": 6454,
      "Ġpair": 6455,
      "Ġmonitor": 6456,
      "Ġincorporating": 6457,
      "Ġfloat": 6458,
      "Ġcomposition": 6459,
      "Ġrub": 6460,
      "Ġconsumers": 6461,
      "ĠTHE": 6462,
      "vity": 6463,
      "names": 6464,
      "open": 6465,
      "wo": 6466,
      "appy": 6467,
      "Ġmixed": 6468,
      "Ġphotos": 6469,
      "Ġextended": 6470,
      "Ġheritage": 6471,
      "inity": 6472,
      "Ġchart": 6473,
      "umes": 6474,
      "lected": 6475,
      "ĠLake": 6476,
      "App": 6477,
      "Ġpsychological": 6478,
      "Ġstanding": 6479,
      "ĠPhil": 6480,
      "ĠSte": 6481,
      "Ġpossibly": 6482,
      "ĠMont": 6483,
      "ĠInv": 6484,
      "Ð¾": 6485,
      "Ġusage": 6486,
      "ipping": 6487,
      "ĠFlor": 6488,
      "Ġsyndrome": 6489,
      "Ġvibr": 6490,
      "?âĢĿ": 6491,
      "Ġarrange": 6492,
      "SE": 6493,
      "Ġuns": 6494,
      "Ġforests": 6495,
      "Ġplate": 6496,
      "Ġturns": 6497,
      "Ġensures": 6498,
      "Ġdynamics": 6499,
      "Ġdepict": 6500,
      "Ġpip": 6501,
      "Dr": 6502,
      "ada": 6503,
      "Ġinspired": 6504,
      "operation": 6505,
      "rc": 6506,
      "ĠSec": 6507,
      "Ġmuseum": 6508,
      "esh": 6509,
      "Ġdirector": 6510,
      "Ð°": 6511,
      "Ġincredible": 6512,
      "Ġsole": 6513,
      "Ġrepeated": 6514,
      "Ġauthent": 6515,
      "ourse": 6516,
      "Ġdeaths": 6517,
      "default": 6518,
      "keys": 6519,
      "Val": 6520,
      "Ġpassion": 6521,
      "ien": 6522,
      "Ġevaluation": 6523,
      "Ġanalyze": 6524,
      "pace": 6525,
      "Sc": 6526,
      "ĠFin": 6527,
      "Ġshell": 6528,
      "Ġprotocol": 6529,
      "Ġmathematics": 6530,
      "ĠStudy": 6531,
      "Ġsusp": 6532,
      "ĠCatholic": 6533,
      "Ġbeneficial": 6534,
      "Ġwriter": 6535,
      "Ġpull": 6536,
      "client": 6537,
      "ini": 6538,
      "Ġexamination": 6539,
      "fortunately": 6540,
      "Ġ!=": 6541,
      "Ġbones": 6542,
      "Ġbot": 6543,
      "Ġintellectual": 6544,
      "ĠThink": 6545,
      "Ġliterary": 6546,
      "Ġagencies": 6547,
      "Ġarms": 6548,
      "Ġstated": 6549,
      "Ġtheore": 6550,
      "Ġachieved": 6551,
      "Ġunknown": 6552,
      "ĠSar": 6553,
      "Ġorganized": 6554,
      "cycl": 6555,
      "Ġmedication": 6556,
      "Ġexpectations": 6557,
      "Ġresolution": 6558,
      "ĠCD": 6559,
      "Ġvillage": 6560,
      "Conclusion": 6561,
      "Ġmarine": 6562,
      "umps": 6563,
      "Ġaccuracy": 6564,
      "UL": 6565,
      "Ġthread": 6566,
      "ĠSum": 6567,
      "Ġemployed": 6568,
      "Ġsupports": 6569,
      "Ġwhereas": 6570,
      "itivity": 6571,
      "Ġopened": 6572,
      "Ġerrors": 6573,
      "ented": 6574,
      "wing": 6575,
      "imer": 6576,
      "ĠCreat": 6577,
      "Ġwriters": 6578,
      "Ġmeaningful": 6579,
      "Ġconfident": 6580,
      "Ġscore": 6581,
      "Ġadopted": 6582,
      "Ġlimits": 6583,
      "uation": 6584,
      "Ġcategories": 6585,
      "ĠMain": 6586,
      "asters": 6587,
      "Ġdust": 6588,
      "aser": 6589,
      "nn": 6590,
      "Ġrecycl": 6591,
      "Ġdeeply": 6592,
      "erated": 6593,
      "ĠAP": 6594,
      "ĠBre": 6595,
      "Ġbio": 6596,
      "ĠComput": 6597,
      "iat": 6598,
      "Ġpowers": 6599,
      "Ġarts": 6600,
      "Ġdescribes": 6601,
      "ye": 6602,
      "Ġfunctional": 6603,
      "Ġarguments": 6604,
      "dered": 6605,
      "ĠCarol": 6606,
      "function": 6607,
      "Ġchildhood": 6608,
      "Ġethnic": 6609,
      "Ġrepresented": 6610,
      "Ġevaluate": 6611,
      "Ġarrived": 6612,
      "Ġdemonstrated": 6613,
      "orter": 6614,
      "Ġtur": 6615,
      "Ġforget": 6616,
      "dep": 6617,
      "Ġhar": 6618,
      "Ġemerging": 6619,
      "Ġreactions": 6620,
      "Ġscene": 6621,
      "Ġlect": 6622,
      "Ġcomments": 6623,
      "throp": 6624,
      "ulin": 6625,
      "Ġmanif": 6626,
      "ulating": 6627,
      "oral": 6628,
      "icking": 6629,
      "Ġexplo": 6630,
      "arity": 6631,
      "BT": 6632,
      "Ġbrings": 6633,
      "Ġconversation": 6634,
      "Ġabund": 6635,
      "Ġdistributed": 6636,
      "Ġappreciation": 6637,
      "Ġrealized": 6638,
      "Ġdynamic": 6639,
      "uh": 6640,
      "Ġfell": 6641,
      "Ġadministration": 6642,
      "Ðµ": 6643,
      "Ġdoor": 6644,
      "zen": 6645,
      "ĠAmong": 6646,
      "ĠNative": 6647,
      "Ġhouses": 6648,
      "Ġinhab": 6649,
      "Ġholds": 6650,
      "Ġlisted": 6651,
      "Ġsuffer": 6652,
      "!\"": 6653,
      "Ġrely": 6654,
      "Ġwisdom": 6655,
      "Ġextensive": 6656,
      "Ġcart": 6657,
      "ocation": 6658,
      "urns": 6659,
      "ĠCharles": 6660,
      "ĠHenry": 6661,
      ".'": 6662,
      "},": 6663,
      "essions": 6664,
      "ĠJose": 6665,
      "length": 6666,
      "hus": 6667,
      "ĠWild": 6668,
      "Ġaqu": 6669,
      "ports": 6670,
      "osc": 6671,
      "Ġworse": 6672,
      "Ġble": 6673,
      "iology": 6674,
      "Ġcollective": 6675,
      "AA": 6676,
      "Ġbehaviour": 6677,
      "Ġnegot": 6678,
      "Ġgrew": 6679,
      "Ġpump": 6680,
      "Ġaccel": 6681,
      "ĠIntroduction": 6682,
      "Ġdecline": 6683,
      "ĠWil": 6684,
      "Ġsupplement": 6685,
      "Ġindustries": 6686,
      "Ġdiss": 6687,
      "Ġflight": 6688,
      "ĠConsider": 6689,
      "SS": 6690,
      "she": 6691,
      "item": 6692,
      "world": 6693,
      "Ġfewer": 6694,
      "Ġleaf": 6695,
      "rip": 6696,
      "Ġinsurance": 6697,
      "ĠAcc": 6698,
      "Ġunus": 6699,
      "Ġtransmission": 6700,
      "Ġinfected": 6701,
      "aria": 6702,
      "Ġblocks": 6703,
      "Ġintake": 6704,
      "Ġhealing": 6705,
      "esity": 6706,
      "obj": 6707,
      "Ġzero": 6708,
      "Ġpresentation": 6709,
      "ala": 6710,
      "tage": 6711,
      "usiness": 6712,
      "color": 6713,
      "Ġratio": 6714,
      "Ġcamera": 6715,
      "Ġfertil": 6716,
      "Ġpossibility": 6717,
      "Ġtechnological": 6718,
      "Ġalongside": 6719,
      "Ġchief": 6720,
      "ĠCompany": 6721,
      "update": 6722,
      "Ġimmediate": 6723,
      "Ġmarriage": 6724,
      "ĠExt": 6725,
      "ersonal": 6726,
      "hemical": 6727,
      "Ġcoffee": 6728,
      "ributes": 6729,
      "ocracy": 6730,
      "ĠSoviet": 6731,
      "Te": 6732,
      "phone": 6733,
      "Ġcreatures": 6734,
      "athe": 6735,
      "Ġmatrix": 6736,
      "'d": 6737,
      "riend": 6738,
      "Ġnormally": 6739,
      "Ġmountain": 6740,
      "ĠOx": 6741,
      "Ġdiscrimination": 6742,
      "ena": 6743,
      "Inst": 6744,
      "Ġseemed": 6745,
      "irt": 6746,
      "Ġempathy": 6747,
      "models": 6748,
      "rons": 6749,
      "ĠLibrary": 6750,
      "pread": 6751,
      "Ġsteel": 6752,
      "Ġsurvive": 6753,
      "ĠYet": 6754,
      "Ġfighting": 6755,
      "Ġmolecules": 6756,
      "Ġtwice": 6757,
      "indu": 6758,
      "Ġdensity": 6759,
      "Ġgall": 6760,
      "Ġcomfortable": 6761,
      "ĠThose": 6762,
      "ĠPC": 6763,
      "Ġmarkets": 6764,
      "Ġreturns": 6765,
      "such": 6766,
      "ĠDiff": 6767,
      "gent": 6768,
      "ĠReview": 6769,
      "lets": 6770,
      "Ġdesire": 6771,
      "Ġnumpy": 6772,
      "Ġindicates": 6773,
      "words": 6774,
      "actions": 6775,
      "Ġnavigate": 6776,
      "Bob": 6777,
      "how": 6778,
      "Ġlearners": 6779,
      "Ġtall": 6780,
      "war": 6781,
      "Ġmissing": 6782,
      "Ġmoon": 6783,
      "Ġapplying": 6784,
      "ĠProfessor": 6785,
      "Ġcolleagues": 6786,
      "ivalent": 6787,
      "ĠSl": 6788,
      "Ġcouldn": 6789,
      "Ġauthorities": 6790,
      "Ġlatter": 6791,
      "Ġbroken": 6792,
      "Ġalle": 6793,
      "frame": 6794,
      "itative": 6795,
      "Ġwish": 6796,
      "âĢĻ.": 6797,
      "Ġdin": 6798,
      "mm": 6799,
      "omach": 6800,
      "AG": 6801,
      "ĠGlobal": 6802,
      "Ġexpressed": 6803,
      "Ġbreathing": 6804,
      "ĠCanadian": 6805,
      "ĠIP": 6806,
      "message": 6807,
      "Ġinsight": 6808,
      "Ġpursu": 6809,
      "ĠAbout": 6810,
      "Ġcompare": 6811,
      "'])": 6812,
      "Ġyounger": 6813,
      "Ġlifestyle": 6814,
      "Ġsocieties": 6815,
      "Ġadvantages": 6816,
      "ventions": 6817,
      "ĠMo": 6818,
      "Ġwilling": 6819,
      "Ġguess": 6820,
      "Ġsocietal": 6821,
      "base": 6822,
      "Ġpublication": 6823,
      "Ġprove": 6824,
      "Ġstyles": 6825,
      "Ġobservations": 6826,
      "ighter": 6827,
      "assion": 6828,
      "ctic": 6829,
      "mean": 6830,
      "sm": 6831,
      "gest": 6832,
      "Ġinject": 6833,
      "Ġnecessarily": 6834,
      "Ġpublish": 6835,
      "det": 6836,
      "cluding": 6837,
      "bra": 6838,
      "burg": 6839,
      "ĠMag": 6840,
      "ropical": 6841,
      "ribe": 6842,
      "claim": 6843,
      "Ġstrict": 6844,
      "Ġsimultane": 6845,
      "Ġgal": 6846,
      "Ġpainting": 6847,
      "idx": 6848,
      "rovers": 6849,
      "Ġupdate": 6850,
      "Ġoptimal": 6851,
      "Ġcommitment": 6852,
      "page": 6853,
      "stone": 6854,
      "Ġfant": 6855,
      "ona": 6856,
      "Ġmamm": 6857,
      "Ġlistening": 6858,
      "sor": 6859,
      "Ġcontinuous": 6860,
      "Ġhousing": 6861,
      "born": 6862,
      "aked": 6863,
      "Ġsupplies": 6864,
      "Ġcrime": 6865,
      "Ġdebate": 6866,
      "Ġaxis": 6867,
      "Act": 6868,
      "Ġ['": 6869,
      "Ġfocuses": 6870,
      "Ġagency": 6871,
      "\"),": 6872,
      "Ġshut": 6873,
      "ĠBro": 6874,
      "ĠEss": 6875,
      "Ġvulnerable": 6876,
      "Ġmyth": 6877,
      "Ġconstit": 6878,
      "edy": 6879,
      "ĠLong": 6880,
      "Ġcategory": 6881,
      "Or": 6882,
      "ĠHam": 6883,
      "Ġcompr": 6884,
      "Ġcoun": 6885,
      "PR": 6886,
      "ĠFinally": 6887,
      "Ġsucceed": 6888,
      "Ġfav": 6889,
      "Ġparticipation": 6890,
      "Through": 6891,
      "ĠEst": 6892,
      "Ġaer": 6893,
      "Ġtf": 6894,
      "adata": 6895,
      "Ġorganisms": 6896,
      "rays": 6897,
      "ibl": 6898,
      "Ġgreatly": 6899,
      "called": 6900,
      "oves": 6901,
      "Ġdomain": 6902,
      "Ġadventure": 6903,
      "escription": 6904,
      "Ġpreval": 6905,
      "ĠOnly": 6906,
      "Ġinstruments": 6907,
      "Ġaccum": 6908,
      "Ġoriginally": 6909,
      "ĠOh": 6910,
      "points": 6911,
      "ĠLouis": 6912,
      "Ġfabric": 6913,
      "Ġthereby": 6914,
      "loss": 6915,
      "ua": 6916,
      "Ġfly": 6917,
      "real": 6918,
      "Ġdepos": 6919,
      "ĠGold": 6920,
      "hav": 6921,
      "Ġelectron": 6922,
      "Ġear": 6923,
      "Ġsections": 6924,
      "dem": 6925,
      "Ġcircuit": 6926,
      "atal": 6927,
      "ĠLand": 6928,
      "Ġeld": 6929,
      "width": 6930,
      "dr": 6931,
      "Ġregist": 6932,
      "Ġdealing": 6933,
      "Ġengaged": 6934,
      "angle": 6935,
      "Ġverb": 6936,
      "Other": 6937,
      "ĠAp": 6938,
      "Ġturning": 6939,
      "idespread": 6940,
      "Ġdifficulty": 6941,
      "Ġemerged": 6942,
      "Ġbreath": 6943,
      "Ġphysics": 6944,
      "Ġphotograph": 6945,
      "cm": 6946,
      "Ġends": 6947,
      "ĠAustralian": 6948,
      "Ġartist": 6949,
      "ĠNations": 6950,
      "ployment": 6951,
      "Ġthreats": 6952,
      "ĠVirginia": 6953,
      "Ġthanks": 6954,
      "Ġfellow": 6955,
      "Ġbread": 6956,
      "ĠTem": 6957,
      "Ġmechanism": 6958,
      "ĠLanguage": 6959,
      "Ġmeal": 6960,
      "Ġholding": 6961,
      "Ġaccessible": 6962,
      "Ġorient": 6963,
      "Ġdeli": 6964,
      "ittle": 6965,
      "ĠLicense": 6966,
      "Ġindependence": 6967,
      "Ġsight": 6968,
      "Ġindu": 6969,
      "Ġconsideration": 6970,
      "ĠTre": 6971,
      "ĠEth": 6972,
      "Ġdistrict": 6973,
      "Ġwhatever": 6974,
      "holders": 6975,
      "anda": 6976,
      "III": 6977,
      "Ġguarant": 6978,
      "Ġbattery": 6979,
      "ambda": 6980,
      "Ġske": 6981,
      "hesis": 6982,
      "Ġgrid": 6983,
      "Ġteams": 6984,
      "Ġemployment": 6985,
      "fulness": 6986,
      "Ġobjective": 6987,
      "Ġmagnetic": 6988,
      "ĠRevolution": 6989,
      "Ġantibiot": 6990,
      "Ġcomplicated": 6991,
      "Ġserving": 6992,
      "ĠBefore": 6993,
      "hop": 6994,
      "Ġaircraft": 6995,
      "Ġempt": 6996,
      "Ġfunds": 6997,
      "CD": 6998,
      "target": 6999,
      "ĠNon": 7000,
      "Ġwarming": 7001,
      "Ġreliable": 7002,
      "Ġwaiting": 7003,
      "Ġstability": 7004,
      "Ġcards": 7005,
      "ao": 7006,
      "ĠCurrent": 7007,
      "oples": 7008,
      "Finally": 7009,
      "esting": 7010,
      "Ġopposite": 7011,
      "Ġbear": 7012,
      "Ġdrain": 7013,
      "ĠFrank": 7014,
      "MP": 7015,
      "allow": 7016,
      "Ġaccident": 7017,
      "Ġtrained": 7018,
      "sts": 7019,
      "gans": 7020,
      "Ġroutine": 7021,
      "Ġtrip": 7022,
      "ĠCheck": 7023,
      "Ġuncertain": 7024,
      "inction": 7025,
      "Le": 7026,
      "Ġinsects": 7027,
      "Ġdoubt": 7028,
      "zed": 7029,
      "ĠFederal": 7030,
      "obs": 7031,
      "source": 7032,
      "cor": 7033,
      "Ġmaps": 7034,
      "Ġsod": 7035,
      "]:": 7036,
      "Ġdelivery": 7037,
      "Ġtap": 7038,
      "Ġunexpected": 7039,
      "Ġoccasion": 7040,
      "press": 7041,
      "ĠParis": 7042,
      "Ġchick": 7043,
      "ĠAdv": 7044,
      "Ġsought": 7045,
      "Ġadministr": 7046,
      "pring": 7047,
      "Ġflag": 7048,
      "ĠEarly": 7049,
      "ĠCommit": 7050,
      "Ġlaun": 7051,
      "Ġmeals": 7052,
      "Ġaffecting": 7053,
      "ĠOffice": 7054,
      "RA": 7055,
      "Ġeditor": 7056,
      "ĠEmpire": 7057,
      "Ġlogging": 7058,
      "Ġconsumer": 7059,
      "Ġpreparation": 7060,
      "ictor": 7061,
      "Ġnoticed": 7062,
      "Ġmodule": 7063,
      "Ġattached": 7064,
      "Ġfalse": 7065,
      "elihood": 7066,
      "Ġspending": 7067,
      "Ġcharacterized": 7068,
      "ĠStr": 7069,
      "content": 7070,
      "Ġreduces": 7071,
      "liament": 7072,
      "Ġconcerning": 7073,
      "Ġsplit": 7074,
      "Ġstake": 7075,
      "author": 7076,
      "Ġacids": 7077,
      "Ġsubstances": 7078,
      "osph": 7079,
      "ĠRad": 7080,
      "Ġplayer": 7081,
      "Ġdemands": 7082,
      "Ġinitially": 7083,
      "issues": 7084,
      "Ġencounter": 7085,
      "ulty": 7086,
      "ĠIndigenous": 7087,
      "Ġplt": 7088,
      "bin": 7089,
      "ĠType": 7090,
      "ĠLabor": 7091,
      "Ġtheories": 7092,
      "Ġcuriosity": 7093,
      "Ġstable": 7094,
      "Ġbeings": 7095,
      "ometry": 7096,
      "jango": 7097,
      "rog": 7098,
      "rus": 7099,
      "Ġheavily": 7100,
      "Ġalter": 7101,
      ".|": 7102,
      "ette": 7103,
      "Ġfossil": 7104,
      "ĠCy": 7105,
      "Ġadm": 7106,
      "Ġcomparison": 7107,
      "ĠUSA": 7108,
      "kin": 7109,
      "Over": 7110,
      "rine": 7111,
      "Ġborder": 7112,
      "OL": 7113,
      "anches": 7114,
      "ĠOpen": 7115,
      "ĊĠĠĠĠĊĠĠĠ": 7116,
      "Ġvessels": 7117,
      "Ġcup": 7118,
      "Ġcorn": 7119,
      "Ġteen": 7120,
      "Ġbutter": 7121,
      "Ġsales": 7122,
      "Ġwidespread": 7123,
      "Ġproduces": 7124,
      "inder": 7125,
      "pare": 7126,
      "Ġsummary": 7127,
      "ipal": 7128,
      "ella": 7129,
      "Ġcalcium": 7130,
      "Ġpurchase": 7131,
      "Ġmathematical": 7132,
      "Ġenthus": 7133,
      "Under": 7134,
      "ĠEnd": 7135,
      "Ġpartner": 7136,
      "ĠDig": 7137,
      "ora": 7138,
      "ĠSym": 7139,
      "Ref": 7140,
      "Ġdrawn": 7141,
      "Ġregardless": 7142,
      "Set": 7143,
      "Ġnewsp": 7144,
      "Ġstomach": 7145,
      "Ġforth": 7146,
      "Ġcomplexity": 7147,
      "TP": 7148,
      "SP": 7149,
      "ocket": 7150,
      "ommod": 7151,
      "ĠConstitution": 7152,
      "esson": 7153,
      "Ġcompounds": 7154,
      "Ġremarkable": 7155,
      "Ġprofound": 7156,
      "Ġsurve": 7157,
      "ĠItaly": 7158,
      "ĠIll": 7159,
      "itter": 7160,
      "Ġfiber": 7161,
      "ĠFlorida": 7162,
      "ailed": 7163,
      "Ġhumanity": 7164,
      "ptions": 7165,
      "Pe": 7166,
      "Ġdf": 7167,
      "Ġunable": 7168,
      "Ġreven": 7169,
      "Ã¼": 7170,
      "comfort": 7171,
      "ĠHome": 7172,
      "icide": 7173,
      "isk": 7174,
      "reshold": 7175,
      "Chapter": 7176,
      "fold": 7177,
      "parse": 7178,
      "ĠColumb": 7179,
      "Ġdance": 7180,
      "Ob": 7181,
      "Ġnone": 7182,
      "Ġinherent": 7183,
      "ĠMill": 7184,
      "asts": 7185,
      "Ġcong": 7186,
      "Ġlic": 7187,
      "Ġtea": 7188,
      "Ġracial": 7189,
      "Ġpron": 7190,
      "ĠCOVID": 7191,
      "Ġputting": 7192,
      "Ġpermanent": 7193,
      "ĠSouthern": 7194,
      "Ġcontributions": 7195,
      "ĠAccess": 7196,
      "Ġinhib": 7197,
      "Ġlaunch": 7198,
      "ribed": 7199,
      "Ġrid": 7200,
      "Ġmood": 7201,
      "Ġadequate": 7202,
      "ĠRob": 7203,
      "Ġclothing": 7204,
      "Ġperm": 7205,
      "ishment": 7206,
      "Ġtroops": 7207,
      "Ġreserv": 7208,
      "čĊč": 7209,
      "ĠNatural": 7210,
      "Ġpreventing": 7211,
      "rd": 7212,
      "Ġsmoking": 7213,
      "ĠLib": 7214,
      "child": 7215,
      "ĠStreet": 7216,
      "Ġhus": 7217,
      "Ġconvey": 7218,
      "Ġproceed": 7219,
      "Ġinfluenced": 7220,
      "Ġjson": 7221,
      "Ġexpansion": 7222,
      "Ġdelay": 7223,
      "Rem": 7224,
      "Ġlegs": 7225,
      "Ġsurfaces": 7226,
      "MA": 7227,
      "Ġcriteria": 7228,
      "Ġhappening": 7229,
      "Since": 7230,
      "rency": 7231,
      "Stud": 7232,
      "Ġreplaced": 7233,
      "Ġswim": 7234,
      "ĠBur": 7235,
      "Ġoperate": 7236,
      "Ġoblig": 7237,
      "Ġjoined": 7238,
      "terol": 7239,
      "orph": 7240,
      "Ġtrouble": 7241,
      "ĠModern": 7242,
      "Ġsubsequent": 7243,
      "Ġoverw": 7244,
      "Ġcommitted": 7245,
      "Ġcul": 7246,
      "Ġlens": 7247,
      "opic": 7248,
      "ĠKh": 7249,
      "Ġlimitations": 7250,
      "Ġinitiatives": 7251,
      "Ġmand": 7252,
      "ĠFre": 7253,
      "draw": 7254,
      "Ġdecade": 7255,
      "Ġangle": 7256,
      "Ġconcrete": 7257,
      "Ġinsert": 7258,
      "Ġforg": 7259,
      "title": 7260,
      "ĠAnn": 7261,
      "ĠFrancis": 7262,
      "ĠISBN": 7263,
      "Ġsubstantial": 7264,
      "asy": 7265,
      "Med": 7266,
      "Ġsubs": 7267,
      "ĠRome": 7268,
      "Ġtu": 7269,
      "Ġgone": 7270,
      "ĠHaw": 7271,
      "Ġmys": 7272,
      "isters": 7273,
      "ĠTer": 7274,
      "ĠEnc": 7275,
      "rooms": 7276,
      "edge": 7277,
      "Ġasp": 7278,
      "Ġchannel": 7279,
      "Ġstreet": 7280,
      "Ġfocusing": 7281,
      "Ġcraft": 7282,
      "________": 7283,
      "ĠDisease": 7284,
      "ĠTake": 7285,
      "Ġdent": 7286,
      "Ġrefuge": 7287,
      "ĠPeter": 7288,
      "Ġcryst": 7289,
      "olesterol": 7290,
      "Ġhypothes": 7291,
      "Ġcenters": 7292,
      "EP": 7293,
      "Ġconference": 7294,
      "ĠDan": 7295,
      "Ġprotecting": 7296,
      "Ġdisturb": 7297,
      "first": 7298,
      "ĠColor": 7299,
      "ĠPub": 7300,
      "Ġconflicts": 7301,
      "Ġcolour": 7302,
      "ĠMean": 7303,
      "Ġfacilitate": 7304,
      "Ġterritory": 7305,
      "Can": 7306,
      "Ġfract": 7307,
      "earchers": 7308,
      "Par": 7309,
      "Ġvac": 7310,
      "Ġpercentage": 7311,
      "fun": 7312,
      "Ġruns": 7313,
      "Ġtut": 7314,
      "Ġchrom": 7315,
      "Ġlaboratory": 7316,
      "Ġfashion": 7317,
      "atial": 7318,
      "Ġrealize": 7319,
      "orig": 7320,
      "Ġmild": 7321,
      "Ġlabels": 7322,
      "Ġzone": 7323,
      "ulary": 7324,
      "ĠReport": 7325,
      "zil": 7326,
      "Ġreward": 7327,
      "Ġintroduce": 7328,
      "Ġq": 7329,
      "Ġgluc": 7330,
      "Ġaims": 7331,
      "vol": 7332,
      "opyright": 7333,
      "Your": 7334,
      "Ġminds": 7335,
      "Ġwouldn": 7336,
      "erior": 7337,
      "ĊĠĠĠĠĠĠĠĠĠ": 7338,
      "Ġdetection": 7339,
      "ographical": 7340,
      "Ġrice": 7341,
      "Ã³": 7342,
      "iratory": 7343,
      "Ġroof": 7344,
      "Ġseconds": 7345,
      "Ġathlet": 7346,
      "Ġpreserve": 7347,
      "asty": 7348,
      "Ġsymbols": 7349,
      "Ġru": 7350,
      "ĠAge": 7351,
      "Ġresulted": 7352,
      "Ġ{'": 7353,
      "soft": 7354,
      "Ġdecor": 7355,
      "Alice": 7356,
      "ĠOcean": 7357,
      "idity": 7358,
      "Ġcontrovers": 7359,
      "Ġintent": 7360,
      "ĠIre": 7361,
      "Ġinequ": 7362,
      "Ġreveal": 7363,
      "Ġtrials": 7364,
      "ãģ": 7365,
      "abs": 7366,
      "Ġflour": 7367,
      "Ġveter": 7368,
      "ĠDoes": 7369,
      "Ġsacr": 7370,
      "Ġgap": 7371,
      "ĠTV": 7372,
      "Ġinstalled": 7373,
      "Ġtheme": 7374,
      "eenth": 7375,
      "Ġinvestigation": 7376,
      "Ġproof": 7377,
      "current": 7378,
      "Ġjump": 7379,
      "uts": 7380,
      "Ġsheet": 7381,
      "irus": 7382,
      "agraph": 7383,
      "Ġconstitution": 7384,
      "ffective": 7385,
      "Ġstuff": 7386,
      "Ġneck": 7387,
      "Ġdaughter": 7388,
      "forcement": 7389,
      "Ġneighborhood": 7390,
      "ĠClin": 7391,
      "Ġalike": 7392,
      "Su": 7393,
      "ĠTor": 7394,
      "Ġbridge": 7395,
      "ĊĠĠĠĠĠĠĠĠĠĠĠĠ": 7396,
      "Ġmitig": 7397,
      "Ġdisrupt": 7398,
      "Ġlibr": 7399,
      "Ġrecommendations": 7400,
      "Ġidentifying": 7401,
      "ih": 7402,
      "ĠExamples": 7403,
      "SD": 7404,
      "eties": 7405,
      "Ġinterf": 7406,
      "=[": 7407,
      "Ġadj": 7408,
      "onia": 7409,
      "Ġroute": 7410,
      "Ġprominent": 7411,
      "kins": 7412,
      "ĠCap": 7413,
      "plant": 7414,
      "Ġbiggest": 7415,
      "ita": 7416,
      "Ġconven": 7417,
      "Ġreceiving": 7418,
      "Ġshot": 7419,
      "Ġencourages": 7420,
      "iated": 7421,
      "Ġfeels": 7422,
      "ĠItalian": 7423,
      "Ġgraduate": 7424,
      "Ġdepart": 7425,
      "Ġenabling": 7426,
      "conf": 7427,
      "argument": 7428,
      "Ġpassage": 7429,
      "CL": 7430,
      "ĠEastern": 7431,
      "Ġwarn": 7432,
      "Ġgram": 7433,
      "example": 7434,
      "rint": 7435,
      "Ġcurious": 7436,
      "Ġemotion": 7437,
      "Ġrelation": 7438,
      "Ġcontained": 7439,
      "Ġargue": 7440,
      "American": 7441,
      "fish": 7442,
      "Ġgradually": 7443,
      "TH": 7444,
      "hma": 7445,
      "Ġexcessive": 7446,
      "oven": 7447,
      "Ġcorner": 7448,
      "heast": 7449,
      "sey": 7450,
      "Ġthesis": 7451,
      "Ġconstantly": 7452,
      "ĠNorthern": 7453,
      "ocabulary": 7454,
      "Ġbarriers": 7455,
      "Ġdream": 7456,
      "Ġhydrogen": 7457,
      "ĠAsian": 7458,
      "ett": 7459,
      "Ġengineers": 7460,
      "initely": 7461,
      "Ġnine": 7462,
      "cho": 7463,
      "Id": 7464,
      "Ġmembr": 7465,
      "Ã¶": 7466,
      "Ġcrow": 7467,
      "Ġunw": 7468,
      "Figure": 7469,
      "Ġliv": 7470,
      "Ġentertain": 7471,
      "ĠUt": 7472,
      "ĠMad": 7473,
      "Ġintegrated": 7474,
      "Ġmerely": 7475,
      "ĠSpain": 7476,
      "outs": 7477,
      ".âĢĻ": 7478,
      "Introduction": 7479,
      "Ġproviders": 7480,
      "utch": 7481,
      "Ġneur": 7482,
      "sl": 7483,
      "icago": 7484,
      "ĠAND": 7485,
      "tery": 7486,
      "Time": 7487,
      "Ġmoves": 7488,
      "Ġdialogue": 7489,
      "Ġhole": 7490,
      "irty": 7491,
      "Ġequivalent": 7492,
      "Ġestimate": 7493,
      "Ġpra": 7494,
      "aph": 7495,
      "Ġsustainability": 7496,
      "Ġdoi": 7497,
      "Ġfounded": 7498,
      "Ġgreenhouse": 7499,
      "âĢĻ,": 7500,
      "Ġfeeding": 7501,
      "bridge": 7502,
      "Ġpresents": 7503,
      "Ġinterpretation": 7504,
      "Ġbiology": 7505,
      "Ġanalys": 7506,
      "Ġvote": 7507,
      "Ġadvert": 7508,
      "ĠJoseph": 7509,
      "Ġprinting": 7510,
      "usal": 7511,
      "Ġaccommod": 7512,
      "Ġimplemented": 7513,
      "itan": 7514,
      "Ġstatistics": 7515,
      "Ġmusical": 7516,
      "ediat": 7517,
      "uality": 7518,
      "bing": 7519,
      "ĠMult": 7520,
      "Ġsatisf": 7521,
      "Ġtwenty": 7522,
      "Ġamid": 7523,
      "OC": 7524,
      "Ed": 7525,
      "fts": 7526,
      "Ġevolved": 7527,
      "istical": 7528,
      "Ġcalculate": 7529,
      "Ġseg": 7530,
      "Ġagents": 7531,
      "Ġhonor": 7532,
      "fill": 7533,
      "Ġdifferently": 7534,
      "quality": 7535,
      "Ġcorrectly": 7536,
      "Ġeducators": 7537,
      "ĠSign": 7538,
      "Ġrecept": 7539,
      "Ġartistic": 7540,
      "Ġpossibilities": 7541,
      "Ġmoisture": 7542,
      "Ġexpertise": 7543,
      "case": 7544,
      "Ġabstract": 7545,
      "Ġnerve": 7546,
      "Ġrobust": 7547,
      "DP": 7548,
      "Ġcolonial": 7549,
      "Ġgrad": 7550,
      "Ġrising": 7551,
      "Ġtreating": 7552,
      "Ġmarried": 7553,
      "chen": 7554,
      "Ġshad": 7555,
      "Ġsupposed": 7556,
      "Ġthousand": 7557,
      "itory": 7558,
      "oving": 7559,
      "medi": 7560,
      "grad": 7561,
      "Ġwhenever": 7562,
      "earing": 7563,
      "Ġintricate": 7564,
      "mented": 7565,
      "ilation": 7566,
      "spe": 7567,
      "Ġplenty": 7568,
      "Ġended": 7569,
      "everal": 7570,
      "ontal": 7571,
      "onents": 7572,
      "Ġdivision": 7573,
      "See": 7574,
      "ĠSing": 7575,
      "Ġmyself": 7576,
      "awn": 7577,
      "Ġinterventions": 7578,
      "Ġmeasurements": 7579,
      "inates": 7580,
      "Ġconversations": 7581,
      "Ġequally": 7582,
      "Model": 7583,
      "Ġcontamin": 7584,
      "Ġmeasurement": 7585,
      "Ġepid": 7586,
      "Ġunusual": 7587,
      "Ġspok": 7588,
      "Ġinstances": 7589,
      "Ġdifficulties": 7590,
      "Ġtargets": 7591,
      "Ġlegislation": 7592,
      "################################": 7593,
      "orses": 7594,
      "Ġrelief": 7595,
      "Ġcapabilities": 7596,
      "ĠIreland": 7597,
      "ĠRoyal": 7598,
      "Ġcust": 7599,
      "Ġdioxide": 7600,
      "ikip": 7601,
      "Ġsys": 7602,
      "ĠPop": 7603,
      "Ġcombat": 7604,
      "Ġrequiring": 7605,
      "ĠTitle": 7606,
      "Ġbranch": 7607,
      "bles": 7608,
      "mes": 7609,
      "Ġmm": 7610,
      "Ġbringing": 7611,
      "Ġpool": 7612,
      "Ġphenomenon": 7613,
      "Ġestimates": 7614,
      "Ġowner": 7615,
      "Ġoutcome": 7616,
      "ushed": 7617,
      "File": 7618,
      "|'": 7619,
      "Ġdebt": 7620,
      "ĠMars": 7621,
      "Ġped": 7622,
      "Ġparallel": 7623,
      "Ġoverwhel": 7624,
      "ĠMax": 7625,
      "Ġrivers": 7626,
      "OP": 7627,
      "ĠAdminist": 7628,
      "irds": 7629,
      "Ġobjectives": 7630,
      "Ġmechanical": 7631,
      "ĠCommittee": 7632,
      "close": 7633,
      "Ġeffectiveness": 7634,
      "Ġassume": 7635,
      "ĠBC": 7636,
      "eers": 7637,
      "utils": 7638,
      "response": 7639,
      "eras": 7640,
      "ugh": 7641,
      "ĠPan": 7642,
      "Ġnic": 7643,
      "Ġnob": 7644,
      "ĠSpe": 7645,
      "andon": 7646,
      "find": 7647,
      "neys": 7648,
      "Ġcontrols": 7649,
      "esis": 7650,
      "Ġtissues": 7651,
      "Ġdestroyed": 7652,
      "Ġdiscussing": 7653,
      "Ġille": 7654,
      "ĠWhere": 7655,
      "ĠLiter": 7656,
      "Ġintegration": 7657,
      "gers": 7658,
      "antly": 7659,
      "Ġod": 7660,
      "ĠResp": 7661,
      "ĠChange": 7662,
      "Ġspecified": 7663,
      "ĠFree": 7664,
      "ceptions": 7665,
      "Ġovercome": 7666,
      "Ġsched": 7667,
      "etch": 7668,
      "Per": 7669,
      "Ġpaint": 7670,
      "Ġobesity": 7671,
      "oir": 7672,
      "Ġdiagnosed": 7673,
      "Ġran": 7674,
      "Ġacknowled": 7675,
      "Ġcomprom": 7676,
      "Ġstimul": 7677,
      "var": 7678,
      "Ġwww": 7679,
      "Ġcats": 7680,
      "lights": 7681,
      "osion": 7682,
      "Ġoutl": 7683,
      "Add": 7684,
      "Ġpassing": 7685,
      "ĠImp": 7686,
      "anta": 7687,
      "Ġalgorithms": 7688,
      "health": 7689,
      "Ġminimize": 7690,
      "Ġperforming": 7691,
      "lik": 7692,
      "Ġminerals": 7693,
      "Ġbiod": 7694,
      "Ġwel": 7695,
      "Ġclients": 7696,
      "Ġjoy": 7697,
      "Ġrepair": 7698,
      "Ġfairly": 7699,
      "Ġmeth": 7700,
      "Ġpup": 7701,
      "Ġdisput": 7702,
      "Ġnotable": 7703,
      "Ġmovie": 7704,
      "ĠCamp": 7705,
      "Ġboy": 7706,
      "batch": 7707,
      "Ġfurn": 7708,
      "Ġhistoric": 7709,
      "Ġaward": 7710,
      "itz": 7711,
      "illa": 7712,
      "Ġsolving": 7713,
      "Ġcontributing": 7714,
      "ĠPM": 7715,
      "ĠModel": 7716,
      "Ġbatch": 7717,
      "Ġexplanation": 7718,
      "Ġexplicit": 7719,
      "ĠFollow": 7720,
      "Ġfinished": 7721,
      "Ġfrequent": 7722,
      "Ġfarming": 7723,
      "Ġflav": 7724,
      "Ġcovers": 7725,
      "yroid": 7726,
      "Ġreput": 7727,
      "Ġconvert": 7728,
      "Ġhandling": 7729,
      "ĠCancer": 7730,
      "acles": 7731,
      "teen": 7732,
      "ritis": 7733,
      "ĠStart": 7734,
      "etics": 7735,
      "ĠGard": 7736,
      "Ġuniversities": 7737,
      "itical": 7738,
      "Ġrocks": 7739,
      "Ġdevelopments": 7740,
      "Ġdanger": 7741,
      "Ġcustomer": 7742,
      "ĠGeorg": 7743,
      "Ġparser": 7744,
      "Ġkne": 7745,
      "Ġmyst": 7746,
      "Ġdataset": 7747,
      "Ġalgorithm": 7748,
      "ĠBank": 7749,
      "Ġtransc": 7750,
      "Ġlights": 7751,
      "Ġexperiencing": 7752,
      "Ġcholesterol": 7753,
      ")))": 7754,
      "pop": 7755,
      "Ġmur": 7756,
      "Ġstrongly": 7757,
      "Despite": 7758,
      "ĠHistorical": 7759,
      "ĠSchol": 7760,
      "Ġships": 7761,
      "iki": 7762,
      "ĠScot": 7763,
      "Man": 7764,
      "âĢĺ": 7765,
      "root": 7766,
      "Ġstructural": 7767,
      "Ġexception": 7768,
      "Ġsimultaneously": 7769,
      "BS": 7770,
      "Ġtag": 7771,
      "tic": 7772,
      "een": 7773,
      "Ġscan": 7774,
      "Ġuniversal": 7775,
      "aws": 7776,
      "ĠAnalysis": 7777,
      "ĠRichard": 7778,
      "ĠCreate": 7779,
      "Ġorgans": 7780,
      "conc": 7781,
      "Ġforming": 7782,
      "Ġscores": 7783,
      "ĠCa": 7784,
      "Ġvideos": 7785,
      "ikipedia": 7786,
      "Ġspecialized": 7787,
      "ĠCommunity": 7788,
      "arks": 7789,
      "ĠTimes": 7790,
      ">>": 7791,
      "Ġshed": 7792,
      "[:,": 7793,
      "Ġpharm": 7794,
      "Ġneither": 7795,
      "Ġnewly": 7796,
      "ograp": 7797,
      "Ġembed": 7798,
      "Ġfest": 7799,
      "Ġvictims": 7800,
      "eries": 7801,
      "capes": 7802,
      "Ġvisitors": 7803,
      "Ġsizes": 7804,
      "Ġspin": 7805,
      "save": 7806,
      "Ġsport": 7807,
      "Ġbath": 7808,
      "Ġnervous": 7809,
      "ĠRom": 7810,
      "Ġcleaning": 7811,
      "itals": 7812,
      "car": 7813,
      "axis": 7814,
      "Ġrealm": 7815,
      "Ġassociation": 7816,
      "ĠWood": 7817,
      "raining": 7818,
      "ocy": 7819,
      "Ġnu": 7820,
      "Ġstores": 7821,
      "Ġdys": 7822,
      "ruption": 7823,
      "Ġdamaged": 7824,
      "ĠâĢ¢": 7825,
      "Ġeastern": 7826,
      "Ġrespectively": 7827,
      "Ġencouraged": 7828,
      "ĠBoard": 7829,
      "Ġtrauma": 7830,
      "Lear": 7831,
      "itt": 7832,
      "sequently": 7833,
      "Ġrepresenting": 7834,
      "ĠMa": 7835,
      "Ġelectro": 7836,
      "Ġtank": 7837,
      "Ġsessions": 7838,
      "Ġfu": 7839,
      "ĠClimate": 7840,
      "Ġvoltage": 7841,
      "Ġcircle": 7842,
      "Ġinfluences": 7843,
      "Ġcontributed": 7844,
      "Ġadds": 7845,
      "Ġoutbre": 7846,
      "Ġicon": 7847,
      "ĠInit": 7848,
      "rox": 7849,
      "ĠScott": 7850,
      "Ġfer": 7851,
      "ervice": 7852,
      "fn": 7853,
      "IA": 7854,
      "Ġ'''": 7855,
      "Ġdefe": 7856,
      "attr": 7857,
      "Ġsharp": 7858,
      "Ġpractition": 7859,
      "ĠIns": 7860,
      "Ġobserve": 7861,
      "ĠFamily": 7862,
      "Ġcorrel": 7863,
      "Ġsmoke": 7864,
      "onym": 7865,
      "ola": 7866,
      "Ġcomputing": 7867,
      "Ġstatements": 7868,
      "env": 7869,
      "ĠGuide": 7870,
      "Sub": 7871,
      "Ð¸": 7872,
      "ĠPenn": 7873,
      "agram": 7874,
      "opes": 7875,
      "Ġlaunched": 7876,
      "ĠGal": 7877,
      "Ġresident": 7878,
      "Last": 7879,
      "Ġreaching": 7880,
      "Ġpeoples": 7881,
      "Ġbigger": 7882,
      "Ġmining": 7883,
      "Ġmyster": 7884,
      "Ġbutton": 7885,
      "Today": 7886,
      "rier": 7887,
      "ctive": 7888,
      "Ġreson": 7889,
      "Ġmolecular": 7890,
      "ĠWorks": 7891,
      "ostic": 7892,
      "Ġrhyth": 7893,
      "gov": 7894,
      "Ġtack": 7895,
      "]]": 7896,
      "Ġequality": 7897,
      "ĠAgricult": 7898,
      "types": 7899,
      "Ġpoetry": 7900,
      "Ġattempts": 7901,
      "Ġintense": 7902,
      "ĠWill": 7903,
      ",'": 7904,
      "ĠEU": 7905,
      "ä¸": 7906,
      "ĠEc": 7907,
      "Ġbanks": 7908,
      "Ġblind": 7909,
      "Ġextraord": 7910,
      "gener": 7911,
      "itual": 7912,
      "Ġmice": 7913,
      "peut": 7914,
      "Ġcoastal": 7915,
      "search": 7916,
      "Ġintegr": 7917,
      "Ġtransformation": 7918,
      "ieval": 7919,
      "Ġgent": 7920,
      "Ġweapons": 7921,
      "Ġmir": 7922,
      "Ġisinstance": 7923,
      "Ġflo": 7924,
      "ĠHy": 7925,
      "Ġpsychology": 7926,
      "izers": 7927,
      "Ġobservation": 7928,
      "iences": 7929,
      "amine": 7930,
      "Ġpuzz": 7931,
      "Ġsomewhat": 7932,
      "ĠValley": 7933,
      "Ġcontainer": 7934,
      "Ġempower": 7935,
      "Ġqualities": 7936,
      "ĠMichael": 7937,
      "Ġbranches": 7938,
      "Ġcriminal": 7939,
      "ĠThough": 7940,
      "ressing": 7941,
      "files": 7942,
      "Ġregulation": 7943,
      "Ġcarb": 7944,
      "ĠSciences": 7945,
      "olesc": 7946,
      "ells": 7947,
      "ĠMaybe": 7948,
      "ĠBrown": 7949,
      "Ġ},": 7950,
      "ĠMethod": 7951,
      "Ġfriendly": 7952,
      "theless": 7953,
      "Ġinn": 7954,
      "ureau": 7955,
      "Ġwatching": 7956,
      "Ġshaped": 7957,
      "connect": 7958,
      "kl": 7959,
      "Ġauton": 7960,
      "Ġformula": 7961,
      "property": 7962,
      "Ġrom": 7963,
      "Ġempty": 7964,
      "Ġincorporate": 7965,
      "Ġissued": 7966,
      "Ġbonds": 7967,
      "Ġarchae": 7968,
      "Reg": 7969,
      "ĠHappy": 7970,
      "Ġfever": 7971,
      "View": 7972,
      "ql": 7973,
      "Ġlinear": 7974,
      "Ġfaces": 7975,
      "Ġwebsites": 7976,
      "abled": 7977,
      "aining": 7978,
      "number": 7979,
      "Ġcarrying": 7980,
      "aired": 7981,
      "ĠOR": 7982,
      "uke": 7983,
      "ĠStat": 7984,
      "ĠFind": 7985,
      "Ġmoments": 7986,
      "fast": 7987,
      "ĠReal": 7988,
      "acher": 7989,
      "athered": 7990,
      "Ġdefense": 7991,
      "Ġdigest": 7992,
      "bur": 7993,
      "Ġstroke": 7994,
      "ĠVer": 7995,
      ".\"\"\"": 7996,
      "Ġagent": 7997,
      "Ġproductivity": 7998,
      "Ġentered": 7999,
      "Ġrect": 8000,
      "Ġsitting": 8001,
      "Ġassigned": 8002,
      "Ġphoto": 8003,
      "ailable": 8004,
      "Ġboys": 8005,
      "%.": 8006,
      "Ġmos": 8007,
      "ĠNever": 8008,
      "Ġessentially": 8009,
      "igma": 8010,
      "ĠAcademy": 8011,
      "ali": 8012,
      "ĠWord": 8013,
      "Ġrank": 8014,
      "ĠSpecial": 8015,
      "ĠVictor": 8016,
      "Ġvariations": 8017,
      "Ġpoison": 8018,
      "ĠIndust": 8019,
      "Ġconstructed": 8020,
      "HD": 8021,
      "Ġpermission": 8022,
      "airy": 8023,
      "Ġinher": 8024,
      "Ġcaptured": 8025,
      "ani": 8026,
      "ĠChicago": 8027,
      "isp": 8028,
      "Ġmarks": 8029,
      "Ġcorresponding": 8030,
      "Pre": 8031,
      "Ġ),": 8032,
      "Ġchances": 8033,
      "Ġschedule": 8034,
      "Ġdescript": 8035,
      "Ġblow": 8036,
      "Ġencouraging": 8037,
      "unning": 8038,
      "Ġabandon": 8039,
      "Ġdestruction": 8040,
      "Ġcaught": 8041,
      "va": 8042,
      "Ġstead": 8043,
      "Ġupdated": 8044,
      "sim": 8045,
      "Ġviruses": 8046,
      "Ġcompassion": 8047,
      "Ġjudge": 8048,
      "HT": 8049,
      "ĠBrazil": 8050,
      "eness": 8051,
      "Ġmask": 8052,
      "Ġliteracy": 8053,
      "Ġdispl": 8054,
      "Ġplus": 8055,
      "Ġpeak": 8056,
      "Ġprinted": 8057,
      "arios": 8058,
      "rowing": 8059,
      "Text": 8060,
      "ĠTry": 8061,
      "Ġcompens": 8062,
      "Ġwellbeing": 8063,
      "Ġranging": 8064,
      "ĠChristianity": 8065,
      "ymph": 8066,
      "Ġvolcan": 8067,
      "Ġwidth": 8068,
      "orate": 8069,
      "Part": 8070,
      "ults": 8071,
      "oga": 8072,
      "amination": 8073,
      "abil": 8074,
      "apse": 8075,
      "SC": 8076,
      "random": 8077,
      "urrent": 8078,
      "rary": 8079,
      "Ġescape": 8080,
      "acco": 8081,
      "Ġactively": 8082,
      "ï¼": 8083,
      "Don": 8084,
      "Ġrobot": 8085,
      "ĠBab": 8086,
      "token": 8087,
      "Ġpersonality": 8088,
      "Ġpit": 8089,
      "asses": 8090,
      "Ġenemy": 8091,
      "Ġstrategic": 8092,
      "Ġundert": 8093,
      "ba": 8094,
      "ĠBig": 8095,
      "Ġversions": 8096,
      "Ġcyber": 8097,
      "rac": 8098,
      "ĠSecurity": 8099,
      "friend": 8100,
      "Ġsurprising": 8101,
      "Ġglucose": 8102,
      "Sp": 8103,
      "Ġmodified": 8104,
      "erring": 8105,
      "Ġefficiently": 8106,
      "IF": 8107,
      "ĠServices": 8108,
      "ĠWelcome": 8109,
      "Ġburning": 8110,
      "Ġworkshe": 8111,
      "Am": 8112,
      "She": 8113,
      "ĠLast": 8114,
      "di": 8115,
      "has": 8116,
      "quit": 8117,
      "Ġsunlight": 8118,
      "ami": 8119,
      "Ġarise": 8120,
      "Ġinspect": 8121,
      "Ġrab": 8122,
      "ano": 8123,
      "ĠYoung": 8124,
      "Ġsla": 8125,
      "column": 8126,
      "Ġimplementing": 8127,
      "ĠValue": 8128,
      "stack": 8129,
      "otton": 8130,
      "ĠViet": 8131,
      "Form": 8132,
      "Ġecosystems": 8133,
      "Ġrenewable": 8134,
      "Ġpromise": 8135,
      "Ġampl": 8136,
      "Ġmeters": 8137,
      "Ġhun": 8138,
      "ki": 8139,
      "ĠIII": 8140,
      "reek": 8141,
      "ĠWhether": 8142,
      "amins": 8143,
      "Ġawait": 8144,
      "Ġpracticing": 8145,
      "orted": 8146,
      "ĠCarolina": 8147,
      "})": 8148,
      "Ġnarrative": 8149,
      "Ġcav": 8150,
      "Ġdates": 8151,
      "Sim": 8152,
      "utrition": 8153,
      "Ġemphasis": 8154,
      "Even": 8155,
      "plete": 8156,
      "RC": 8157,
      "Ġtables": 8158,
      "Ġapproved": 8159,
      "Ġposit": 8160,
      "Ġfemales": 8161,
      "Ġmarketing": 8162,
      "Ġpreferences": 8163,
      "ocking": 8164,
      "ĠSarah": 8165,
      "Ġnose": 8166,
      "Ġexplored": 8167,
      "Ġcomposed": 8168,
      "vance": 8169,
      "Ġclassic": 8170,
      "Ġtub": 8171,
      "charge": 8172,
      "ĠIran": 8173,
      "core": 8174,
      "ĠParty": 8175,
      "Ġplanned": 8176,
      "Ġsad": 8177,
      "','": 8178,
      "ĠOper": 8179,
      "Ġgirl": 8180,
      "estions": 8181,
      "ĠFace": 8182,
      "Ġdesert": 8183,
      "dist": 8184,
      "Ġweakness": 8185,
      "ston": 8186,
      "Ġkidney": 8187,
      "sem": 8188,
      "Ġdisaster": 8189,
      "iar": 8190,
      "esides": 8191,
      "Ġautomatically": 8192,
      "ĠSil": 8193,
      "opath": 8194,
      "Ġannounced": 8195,
      "Ġmixture": 8196,
      "ĠChristians": 8197,
      "PE": 8198,
      "ĠPlant": 8199,
      "ading": 8200,
      "Ġscientist": 8201,
      "bug": 8202,
      "Ġurl": 8203,
      "Ġmortality": 8204,
      "Ġassets": 8205,
      "Ġbabies": 8206,
      "Ġordinary": 8207,
      "Ġexpressions": 8208,
      "Ġimprovements": 8209,
      "Ġpurs": 8210,
      "Ġkeeps": 8211,
      "Ġprecise": 8212,
      "Ġdimensions": 8213,
      "Ġslavery": 8214,
      "Ġrender": 8215,
      "Ġpoem": 8216,
      "Ġindicated": 8217,
      "Ġanalyzing": 8218,
      "ĠTogether": 8219,
      "Ġproven": 8220,
      "Ġconsiderable": 8221,
      "connected": 8222,
      "Ġtube": 8223,
      "tem": 8224,
      "Ġmales": 8225,
      "ensional": 8226,
      "Ġfalls": 8227,
      "azine": 8228,
      "Ġlingu": 8229,
      "ĠUlt": 8230,
      "Ġparas": 8231,
      "this": 8232,
      "Ġring": 8233,
      "utely": 8234,
      "Inter": 8235,
      "Ġattach": 8236,
      "Ġbrush": 8237,
      "Ġinspiration": 8238,
      "Ġsigned": 8239,
      "door": 8240,
      "Trans": 8241,
      "EST": 8242,
      "Ġlegisl": 8243,
      "ovascular": 8244,
      "egin": 8245,
      "Ġguard": 8246,
      "Ġchannels": 8247,
      "Ġinsulin": 8248,
      "Ġprofile": 8249,
      "Ġdb": 8250,
      "wind": 8251,
      "Ġavailability": 8252,
      "Ġpanel": 8253,
      "yal": 8254,
      "Ġresid": 8255,
      "elesc": 8256,
      "Ġstrain": 8257,
      "Ġproportion": 8258,
      "Ġlaid": 8259,
      "Ġtraits": 8260,
      "otype": 8261,
      "elfare": 8262,
      "ady": 8263,
      "Ġwonderful": 8264,
      "ĠSat": 8265,
      "lower": 8266,
      "inson": 8267,
      "Ġpin": 8268,
      "Ġmemories": 8269,
      "Ġcash": 8270,
      "Ġproved": 8271,
      "ĠFort": 8272,
      "ude": 8273,
      "Ġtons": 8274,
      "Ġdeclared": 8275,
      "Ġdispar": 8276,
      "ĠProcess": 8277,
      "ĠHoly": 8278,
      "ĠBack": 8279,
      "Ġmeasuring": 8280,
      "Ġuniform": 8281,
      "rypt": 8282,
      "Ġcycl": 8283,
      "Ġfinds": 8284,
      "Ġorigins": 8285,
      "ĠUnfortunately": 8286,
      "Ġdisabilities": 8287,
      "ĠDev": 8288,
      "Ġwine": 8289,
      "Ġextend": 8290,
      "Ġtargeted": 8291,
      "UM": 8292,
      "iture": 8293,
      "Ġvarieties": 8294,
      "Ġrac": 8295,
      "Ġcounsel": 8296,
      "Ġheating": 8297,
      "show": 8298,
      "Ġsenior": 8299,
      "Ġdependent": 8300,
      "čĊĠĠĠĠĠĠĠĠĠĠĠĠĠĠĠ": 8301,
      "Ġperception": 8302,
      "Ġplane": 8303,
      "Ġsatellite": 8304,
      "Ġsensitivity": 8305,
      "azon": 8306,
      ")]": 8307,
      "Ġepis": 8308,
      "ourage": 8309,
      "iah": 8310,
      "------------": 8311,
      "Ġpreparing": 8312,
      "Ġenhancing": 8313,
      "Ġpreserving": 8314,
      "sen": 8315,
      "Ġnorms": 8316,
      "Aut": 8317,
      "Ġattitudes": 8318,
      "Ġidentification": 8319,
      "you": 8320,
      "Ġtact": 8321,
      "lessly": 8322,
      "Ġclub": 8323,
      "Ġscenario": 8324,
      "ĠPot": 8325,
      "ĠNote": 8326,
      "ĠOptional": 8327,
      "Ġexhibit": 8328,
      "Ġmold": 8329,
      "Ġdefend": 8330,
      "roat": 8331,
      "edu": 8332,
      "ĠNaz": 8333,
      "Ġinterface": 8334,
      "ĠIrish": 8335,
      "Ġusual": 8336,
      "Ġtension": 8337,
      "ounce": 8338,
      "Ġelection": 8339,
      "Ġprovider": 8340,
      "telling": 8341,
      "Ġsafely": 8342,
      "lock": 8343,
      "onal": 8344,
      "Ġequation": 8345,
      "Ġmicrob": 8346,
      "Ġcounty": 8347,
      "project": 8348,
      "Ġchest": 8349,
      "night": 8350,
      "Ġprivacy": 8351,
      "Ġremoval": 8352,
      "otypes": 8353,
      "Ġquiet": 8354,
      "ÑĤ": 8355,
      "Ġcontribution": 8356,
      "Ġscope": 8357,
      "Ġdollars": 8358,
      "Ġinhabit": 8359,
      "Ġhusband": 8360,
      "Ġpeer": 8361,
      "Ġchoosing": 8362,
      "ĠBob": 8363,
      "Ġroads": 8364,
      "Ġvel": 8365,
      "ĠSystems": 8366,
      "Ġhem": 8367,
      "Ġinspire": 8368,
      "Ġsampl": 8369,
      "Ġrespiratory": 8370,
      "link": 8371,
      "Ġmetabol": 8372,
      "Ġsensors": 8373,
      "Ġvocabulary": 8374,
      "Ġcelebrate": 8375,
      "Ġwound": 8376,
      "Ġconnecting": 8377,
      "ĠKingdom": 8378,
      "Ġouter": 8379,
      "Ġtract": 8380,
      "Ġintensity": 8381,
      "Ġextraordinary": 8382,
      "Ġexperimental": 8383,
      "opol": 8384,
      "ĠMel": 8385,
      "ĠMen": 8386,
      "Ġfacility": 8387,
      "ĠStrateg": 8388,
      "Ġaudio": 8389,
      "Ġmarginal": 8390,
      "ĠBuilding": 8391,
      "Ġfaculty": 8392,
      "Ġwindows": 8393,
      "ĠPo": 8394,
      "Ġecological": 8395,
      "graph": 8396,
      "ĠApplic": 8397,
      "Ġritual": 8398,
      "Ġprotective": 8399,
      "Ġfinger": 8400,
      "akistan": 8401,
      "%)": 8402,
      "Che": 8403,
      "Ġdispos": 8404,
      "EE": 8405,
      "Ġdriven": 8406,
      "Ġirrit": 8407,
      "haust": 8408,
      "brid": 8409,
      "heric": 8410,
      "ĠHand": 8411,
      "Example": 8412,
      "uid": 8413,
      "Ġimaging": 8414,
      "Ġturb": 8415,
      "items": 8416,
      "={": 8417,
      "Ġwarning": 8418,
      "Ġhorses": 8419,
      "Ġgut": 8420,
      "Ġfeat": 8421,
      "Ġdecreased": 8422,
      "Ġlie": 8423,
      "Ġmaintained": 8424,
      "Ġprospect": 8425,
      "Ġcoverage": 8426,
      "Ġminute": 8427,
      "Ġopinions": 8428,
      "emia": 8429,
      "Ġstere": 8430,
      "Ġvector": 8431,
      "ĠLook": 8432,
      "query": 8433,
      "Ġessays": 8434,
      "Ġabsolute": 8435,
      "Ġgalax": 8436,
      "Ġtheoretical": 8437,
      "ĠIslamic": 8438,
      "Ġspectrum": 8439,
      "Ġmicrosc": 8440,
      "Ġalive": 8441,
      "Ġhonest": 8442,
      "Ġdriver": 8443,
      "ĠJohnson": 8444,
      "ĠYear": 8445,
      "Ġinteractive": 8446,
      "Ġprohib": 8447,
      "ĠImport": 8448,
      "Ġcalculated": 8449,
      "Ġhoney": 8450,
      "ivered": 8451,
      "ustain": 8452,
      "Ġsoph": 8453,
      "cf": 8454,
      "Ġgiant": 8455,
      "ĠZeal": 8456,
      "Ġintrig": 8457,
      "ĠLearn": 8458,
      "Ġcoc": 8459,
      "ĠBusiness": 8460,
      "ipher": 8461,
      "Ġcaptiv": 8462,
      "Ġstrange": 8463,
      "ĠAtlantic": 8464,
      "IDS": 8465,
      "Ġdietary": 8466,
      "sg": 8467,
      "Ġearthqu": 8468,
      "rous": 8469,
      "Ġadvances": 8470,
      "Ġanywhere": 8471,
      "Ġhur": 8472,
      "Ġpounds": 8473,
      "Ġdefect": 8474,
      "emplate": 8475,
      "ailing": 8476,
      "Ġspir": 8477,
      "ĠMartin": 8478,
      "itamin": 8479,
      "Ġbreeding": 8480,
      "ĠAst": 8481,
      "ohyd": 8482,
      "Ġtranslation": 8483,
      "Ġprocessed": 8484,
      "Ġtempl": 8485,
      "ĠSuper": 8486,
      "hyd": 8487,
      "iological": 8488,
      "tr": 8489,
      "Ġvarying": 8490,
      "iox": 8491,
      "ĠInteg": 8492,
      "CP": 8493,
      "Ġcooperation": 8494,
      "oded": 8495,
      "ideo": 8496,
      "Ġofficers": 8497,
      "ĠSafety": 8498,
      "Ġsilver": 8499,
      "ĊĠĠĠĠĠĠĠĠĠĠĠĠĠĠĠĠĠĠĠĠĠĠĠĠĠĠĠĠĠĠĠĠĠĠĠĠĠĠĠĠ": 8500,
      "ĠHall": 8501,
      "Ġabnormal": 8502,
      "ĠGrand": 8503,
      "ĠForest": 8504,
      "Ġevil": 8505,
      "Ġceremon": 8506,
      "working": 8507,
      "oric": 8508,
      "Tra": 8509,
      "Ġparagraph": 8510,
      "Ġvan": 8511,
      "ĠPlay": 8512,
      "Ġencomp": 8513,
      "itarian": 8514,
      "igan": 8515,
      "Ġrecover": 8516,
      "uris": 8517,
      "Ġreporting": 8518,
      "Ġholes": 8519,
      "Ġquery": 8520,
      "DS": 8521,
      "Ġrarely": 8522,
      "Hist": 8523,
      "ĠSecret": 8524,
      "Ġflower": 8525,
      "ĠOxford": 8526,
      "Ġcomplications": 8527,
      "Ġlosses": 8528,
      "Ġmigration": 8529,
      "Class": 8530,
      "Ġtick": 8531,
      "Ġprincipal": 8532,
      "FA": 8533,
      "Ġeliminate": 8534,
      "Ġreverse": 8535,
      "Ġcovering": 8536,
      "Ġscenarios": 8537,
      "Ġintest": 8538,
      "igned": 8539,
      "Ġhaven": 8540,
      "Ġreasonable": 8541,
      "Ġbias": 8542,
      "Ġprofit": 8543,
      "Ġ;": 8544,
      "Ġsentences": 8545,
      "Ġaccompan": 8546,
      "Â·": 8547,
      "Ġcopper": 8548,
      "Ġcream": 8549,
      "iber": 8550,
      "nals": 8551,
      "Ġtelevision": 8552,
      "Ġroughly": 8553,
      "ĠResources": 8554,
      "ĠDou": 8555,
      "Ġrecall": 8556,
      "Ġtaxes": 8557,
      "ernel": 8558,
      "Ġabsence": 8559,
      "Ġcentre": 8560,
      "ĠEp": 8561,
      "ync": 8562,
      "ĠFund": 8563,
      "prene": 8564,
      "filter": 8565,
      "Ġseemingly": 8566,
      "Ġpackage": 8567,
      "Ġcompound": 8568,
      "Ġperceived": 8569,
      "Ġdominant": 8570,
      "Ġclaimed": 8571,
      "Ġcommittee": 8572,
      "ĠZealand": 8573,
      "ĠEngineering": 8574,
      "archy": 8575,
      "Ġfault": 8576,
      "Ġcommission": 8577,
      "Ġhardware": 8578,
      "feed": 8579,
      "Ġflavor": 8580,
      "ĠTom": 8581,
      "Ġphysically": 8582,
      "Ġembracing": 8583,
      "alog": 8584,
      "mentation": 8585,
      "Ġtrace": 8586,
      "peutic": 8587,
      "Ġislands": 8588,
      "Ġaccurately": 8589,
      "ĠAlice": 8590,
      "Ġorbit": 8591,
      "Ġconsume": 8592,
      "ĠBill": 8593,
      "Ġcollections": 8594,
      "Ġfunctioning": 8595,
      "Ġpregnant": 8596,
      "Ġmutual": 8597,
      "Ġcoding": 8598,
      "ĠSup": 8599,
      "Every": 8600,
      "Ġdil": 8601,
      "eping": 8602,
      "rance": 8603,
      "Ġreflection": 8604,
      "Ġsuscept": 8605,
      "Ġradical": 8606,
      "Ġcab": 8607,
      "reprene": 8608,
      "Ġbalanced": 8609,
      "ĠConsequently": 8610,
      "Ġven": 8611,
      "Ġcrew": 8612,
      "Ġvariation": 8613,
      "Ġmemor": 8614,
      "=(": 8615,
      "ĠChristmas": 8616,
      "including": 8617,
      "Ġtip": 8618,
      "osh": 8619,
      "ĠNum": 8620,
      "ĠNetwork": 8621,
      "ĠLead": 8622,
      "Ġfing": 8623,
      "Ġminimal": 8624,
      "chain": 8625,
      "Ġdish": 8626,
      "ĠHT": 8627,
      "ĠIndians": 8628,
      "Ġfourth": 8629,
      "ĠOrig": 8630,
      "Ġlogic": 8631,
      "Ġembark": 8632,
      "Ġconqu": 8633,
      "Ġflows": 8634,
      "aska": 8635,
      "Ġconfirmed": 8636,
      "miss": 8637,
      "Ġedition": 8638,
      "Ġlists": 8639,
      "ĠAgency": 8640,
      "Ġarrest": 8641,
      "found": 8642,
      "Ġharder": 8643,
      "cyclop": 8644,
      "Ġlock": 8645,
      "ĠOnline": 8646,
      "ECT": 8647,
      "Ġheads": 8648,
      "Ġrequests": 8649,
      "Ġconsciousness": 8650,
      "Ġov": 8651,
      "uscript": 8652,
      "Because": 8653,
      "Ġdesigning": 8654,
      "ocolate": 8655,
      "Ġwheel": 8656,
      "Ġinvestigate": 8657,
      "Ġtow": 8658,
      "Ġbreaking": 8659,
      "Ġflexibility": 8660,
      "Ġnodes": 8661,
      "ga": 8662,
      "Ġgrain": 8663,
      "Ġsoul": 8664,
      "Ġcham": 8665,
      "Ġreferences": 8666,
      "Ġinfo": 8667,
      "Ġexamined": 8668,
      "ĠMove": 8669,
      "heimer": 8670,
      "Ġquantum": 8671,
      "igue": 8672,
      "ĠHill": 8673,
      "ĠSwed": 8674,
      "Ġfo": 8675,
      "rection": 8676,
      "PL": 8677,
      "Ġbatt": 8678,
      "Ġwondered": 8679,
      "ensed": 8680,
      "Ġvertical": 8681,
      "ulpt": 8682,
      "ĠOrganization": 8683,
      "ersion": 8684,
      "Ġvibrant": 8685,
      "Ġflexible": 8686,
      "Ġduration": 8687,
      "Ġopposed": 8688,
      "Ġrational": 8689,
      "Ġlake": 8690,
      "ĠEqu": 8691,
      "cut": 8692,
      "Next": 8693,
      "ĠLim": 8694,
      "otherapy": 8695,
      "ĠThree": 8696,
      "rize": 8697,
      "Ġherself": 8698,
      "csv": 8699,
      "ĠMer": 8700,
      "emb": 8701,
      "alities": 8702,
      "Ġlighting": 8703,
      "ĠFact": 8704,
      "ĠAR": 8705,
      "ĠNorm": 8706,
      "Ġye": 8707,
      "common": 8708,
      "Ġparameter": 8709,
      "Ġbrow": 8710,
      "ruit": 8711,
      "hema": 8712,
      "ĠBal": 8713,
      "Ġauthentic": 8714,
      "Ġphrase": 8715,
      "ĠHosp": 8716,
      "Ġchlor": 8717,
      "Ġmountains": 8718,
      "Ġcontributes": 8719,
      "reams": 8720,
      "abeth": 8721,
      "Ġgranted": 8722,
      "Ġlibraries": 8723,
      "Cons": 8724,
      "Ġfishing": 8725,
      "Ġscreening": 8726,
      "Ġbag": 8727,
      "ĠLittle": 8728,
      "ĠContin": 8729,
      "etary": 8730,
      "Ġsurprise": 8731,
      "ĠDen": 8732,
      "anted": 8733,
      "Ġsuperior": 8734,
      "Ġacquired": 8735,
      "ĠAuthor": 8736,
      "Ġmanifest": 8737,
      "covery": 8738,
      "Ġrose": 8739,
      "Ġspark": 8740,
      "Ġhazard": 8741,
      "Ġanticip": 8742,
      "Ġcalling": 8743,
      "icy": 8744,
      "sex": 8745,
      "Ġprobability": 8746,
      "Ġcalories": 8747,
      "Ġresearcher": 8748,
      "Ġachieving": 8749,
      "Ġcurve": 8750,
      "Ġdetected": 8751,
      "ĠCle": 8752,
      "Ġdelivered": 8753,
      "Ġworship": 8754,
      "Ġpond": 8755,
      "idation": 8756,
      "Ġbene": 8757,
      "Ġmineral": 8758,
      "Ġgrows": 8759,
      "Just": 8760,
      "Ġtempor": 8761,
      "Ġloop": 8762,
      "ura": 8763,
      "Ġsensor": 8764,
      "ĠPlease": 8765,
      "Ġclassical": 8766,
      "Ġfra": 8767,
      "Ġlandscapes": 8768,
      "Ġexceed": 8769,
      "Ġpeers": 8770,
      "Ġdose": 8771,
      "IO": 8772,
      "Ġsaved": 8773,
      "Ġnumer": 8774,
      "uten": 8775,
      "Ġsculpt": 8776,
      "Ġtemple": 8777,
      "Ġpreced": 8778,
      "ĠPoint": 8779,
      "Ġextension": 8780,
      "Ġcompetitive": 8781,
      "Ġpropag": 8782,
      "Ġphenomena": 8783,
      "olar": 8784,
      "Ġmotivation": 8785,
      "Ġsongs": 8786,
      ".).": 8787,
      "Ġglobe": 8788,
      "ĠPolicy": 8789,
      "Ġappeal": 8790,
      "Ġdemocracy": 8791,
      "Def": 8792,
      "Ġinfant": 8793,
      "Ġabsor": 8794,
      "Ġunders": 8795,
      "pie": 8796,
      "Ġvisited": 8797,
      "irms": 8798,
      "ĠFigure": 8799,
      "clusions": 8800,
      "Ġease": 8801,
      "ĠReading": 8802,
      "Ġbiom": 8803,
      "venile": 8804,
      "Ġdiameter": 8805,
      "Ġdishes": 8806,
      "Ġisolated": 8807,
      "peror": 8808,
      "Ġclothes": 8809,
      "eta": 8810,
      "ĠPractice": 8811,
      "ĠAdministration": 8812,
      "ĠHeb": 8813,
      "Ġcooling": 8814,
      "ĠCross": 8815,
      "Ġdetermining": 8816,
      "uis": 8817,
      "oston": 8818,
      "amps": 8819,
      "Ġtowns": 8820,
      "čĊčĊĠĠĠ": 8821,
      "Ġcopyright": 8822,
      "Ġbeneath": 8823,
      "Ġpassword": 8824,
      "ĠAssess": 8825,
      "through": 8826,
      "Ġexpanded": 8827,
      "Ġcas": 8828,
      "Ġdetermination": 8829,
      "raints": 8830,
      "Ð½": 8831,
      "Ġpandemic": 8832,
      "Ġadvancements": 8833,
      "ĠJul": 8834,
      "oln": 8835,
      "mask": 8836,
      "Ġalternatives": 8837,
      "acent": 8838,
      "Ġsurge": 8839,
      "Ġstations": 8840,
      "ĠPakistan": 8841,
      "left": 8842,
      "Ġenhanced": 8843,
      "Ġneural": 8844,
      "Ġsuffered": 8845,
      "Ġcompos": 8846,
      "ĠConnect": 8847,
      "Ġfrust": 8848,
      "Ġtemporary": 8849,
      "ogenic": 8850,
      "ptic": 8851,
      "Table": 8852,
      "Ġgast": 8853,
      "roud": 8854,
      "ĠLow": 8855,
      "Ġchemistry": 8856,
      "power": 8857,
      "perm": 8858,
      "unct": 8859,
      "xy": 8860,
      "Ġcontexts": 8861,
      "ĠAngel": 8862,
      "Ġversus": 8863,
      "Ġmanager": 8864,
      "Ġhabitats": 8865,
      "ĊĊĠ": 8866,
      "Ġraising": 8867,
      "ĠWindows": 8868,
      "oons": 8869,
      "Ġdisability": 8870,
      "Ġbreed": 8871,
      "ĠMoon": 8872,
      "rin": 8873,
      "adder": 8874,
      "ĠWithout": 8875,
      "anger": 8876,
      "aped": 8877,
      "Ġlosing": 8878,
      "Ġaest": 8879,
      "Ġgrains": 8880,
      "Ġstakeholders": 8881,
      "ĠDistrict": 8882,
      "aved": 8883,
      "Ġblank": 8884,
      "Ġordered": 8885,
      "clude": 8886,
      "ĠObs": 8887,
      "Ġelsewhere": 8888,
      "Ġkeys": 8889,
      "Ġelder": 8890,
      "'))": 8891,
      "Ġgathered": 8892,
      "Ġwheat": 8893,
      "fix": 8894,
      "Ġunity": 8895,
      "Ġvisiting": 8896,
      "Ġles": 8897,
      "math": 8898,
      "ĠDown": 8899,
      "Ġhier": 8900,
      "Ġsubmit": 8901,
      "product": 8902,
      "iana": 8903,
      "OW": 8904,
      "Ġluck": 8905,
      "Ġhappiness": 8906,
      "kind": 8907,
      "Ġdrag": 8908,
      "Ġadolesc": 8909,
      "quir": 8910,
      "advant": 8911,
      "Ġearliest": 8912,
      "Ġhence": 8913,
      "Ġaddressed": 8914,
      "Ġhormone": 8915,
      "Ġexcited": 8916,
      "Ġtribes": 8917,
      "riz": 8918,
      "ĠCrit": 8919,
      "ĠFour": 8920,
      "creen": 8921,
      "Ġsuddenly": 8922,
      "ĠRoad": 8923,
      "Ġcontrolling": 8924,
      "mail": 8925,
      "Ġexhaust": 8926,
      "ĠID": 8927,
      "Note": 8928,
      "icular": 8929,
      "onent": 8930,
      "rolled": 8931,
      "Ġtelling": 8932,
      "Ġaged": 8933,
      "Ġconj": 8934,
      "Ġcolumns": 8935,
      "ĠSpirit": 8936,
      "Ġacute": 8937,
      "Ġedges": 8938,
      "Ġdirections": 8939,
      "Ġasc": 8940,
      "Ġtropical": 8941,
      "oured": 8942,
      "Ġcountless": 8943,
      "Ġparad": 8944,
      "Ġsaving": 8945,
      "Ġvoices": 8946,
      "Ġacting": 8947,
      "ĠMath": 8948,
      "Ġmine": 8949,
      "ema": 8950,
      "Ġhunting": 8951,
      "Ġseat": 8952,
      "Ġterror": 8953,
      "ricts": 8954,
      "ĠPath": 8955,
      "Ġbuff": 8956,
      "ĠSir": 8957,
      "Ġbomb": 8958,
      "Co": 8959,
      "oids": 8960,
      "Ġmanual": 8961,
      "Ġviewed": 8962,
      "Ġsatisfact": 8963,
      "Ġunion": 8964,
      "NS": 8965,
      "ĠHarv": 8966,
      "Ġdisag": 8967,
      "ĠCast": 8968,
      "ĠLog": 8969,
      "CA": 8970,
      "rh": 8971,
      "ĠArticle": 8972,
      "Ġdecay": 8973,
      "aration": 8974,
      "mal": 8975,
      "Ġstopped": 8976,
      "ĠRock": 8977,
      "TER": 8978,
      "only": 8979,
      "ĠCentre": 8980,
      "books": 8981,
      "vi": 8982,
      "Ġoccurring": 8983,
      "Ġchose": 8984,
      "ATION": 8985,
      "Ġfed": 8986,
      "cult": 8987,
      "Ġintegrity": 8988,
      "Ġstones": 8989,
      "ĠWall": 8990,
      "Ġcandidate": 8991,
      "ĠTop": 8992,
      "Ġcombine": 8993,
      "ĠVen": 8994,
      "ĠJac": 8995,
      "Ġpreferred": 8996,
      "anned": 8997,
      "Î±": 8998,
      "asant": 8999,
      "msg": 9000,
      "context": 9001,
      "Ġthermal": 9002,
      "Ġscr": 9003,
      "Ġnitrogen": 9004,
      "ega": 9005,
      "Ġpestic": 9006,
      "ometric": 9007,
      "ĠHor": 9008,
      "Ġlegacy": 9009,
      "ui": 9010,
      "pdf": 9011,
      "iability": 9012,
      "izabeth": 9013,
      "Ġgently": 9014,
      "Ġcluster": 9015,
      "Ġachievement": 9016,
      "ĠLight": 9017,
      "Ġstreets": 9018,
      "Ġmagic": 9019,
      "pi": 9020,
      "exist": 9021,
      "Ġfarms": 9022,
      "Ã¤": 9023,
      "Ġphosph": 9024,
      "Ġshoot": 9025,
      "Inf": 9026,
      "Ġfalling": 9027,
      "Ġremoving": 9028,
      "Ġtales": 9029,
      "Ġtight": 9030,
      "Ġequipped": 9031,
      "mond": 9032,
      "non": 9033,
      "Ġspatial": 9034,
      "Ġamidst": 9035,
      "Ġgrades": 9036,
      "Ġbacterial": 9037,
      "Ġattributes": 9038,
      "ĠProp": 9039,
      "Ġinvolvement": 9040,
      "Ġhighlights": 9041,
      "Ne": 9042,
      "Ġvig": 9043,
      "Ġquantity": 9044,
      "Ġgenu": 9045,
      "ĠCase": 9046,
      "txt": 9047,
      "Ġdefinitely": 9048,
      "ĠCE": 9049,
      "Ġasthma": 9050,
      "century": 9051,
      "cipe": 9052,
      "Ġevening": 9053,
      "Ġillegal": 9054,
      "QL": 9055,
      "best": 9056,
      "Ġpaying": 9057,
      "likely": 9058,
      "ĠMach": 9059,
      "Ġduty": 9060,
      "char": 9061,
      "ĠPass": 9062,
      "fields": 9063,
      "Ġwearing": 9064,
      "Ġvitamins": 9065,
      "Ġsuit": 9066,
      "Ġdirected": 9067,
[...]
